{
  "version": "1.0",
  "truncation": {
    "direction": "Right",
    "max_length": 128,
    "strategy": "LongestFirst",
    "stride": 0
  },
  "padding": {
    "strategy": {
      "Fixed": 128
    },
    "direction": "Right",
    "pad_to_multiple_of": null,
    "pad_id": 3,
    "pad_type_id": 0,
    "pad_token": "[PAD]"
  },
  "added_tokens": [
    {
      "id": 0,
      "content": "[UNK]",
      "single_word": false,
      "lstrip": false,
      "rstrip": false,
      "normalized": false,
      "special": true
    },
    {
      "id": 1,
      "content": "[CLS]",
      "single_word": false,
      "lstrip": false,
      "rstrip": false,
      "normalized": false,
      "special": true
    },
    {
      "id": 2,
      "content": "[SEP]",
      "single_word": false,
      "lstrip": false,
      "rstrip": false,
      "normalized": false,
      "special": true
    },
    {
      "id": 3,
      "content": "[PAD]",
      "single_word": false,
      "lstrip": false,
      "rstrip": false,
      "normalized": false,
      "special": true
    },
    {
      "id": 4,
      "content": "[MASK]",
      "single_word": false,
      "lstrip": false,
      "rstrip": false,
      "normalized": false,
      "special": true
    }
  ],
  "normalizer": {
    "type": "Sequence",
    "normalizers": [
      {
        "type": "NFKD"
      },
      {
        "type": "Lowercase"
      },
      {
        "type": "StripAccents"
      },
      {
        "type": "Strip",
        "strip_left": true,
        "strip_right": true
      }
    ]
  },
  "pre_tokenizer": {
    "type": "Sequence",
    "pretokenizers": [
      {
        "type": "Whitespace"
      },
      {
        "type": "Punctuation",
        "behavior": "Isolated"
      }
    ]
  },
  "post_processor": null,
  "decoder": {
    "type": "BPEDecoder",
    "suffix": "</w>"
  },
  "model": {
    "type": "BPE",
    "dropout": null,
    "unk_token": "[UNK]",
    "continuing_subword_prefix": null,
    "end_of_word_suffix": "</w>",
    "fuse_unk": false,
    "byte_fallback": false,
    "vocab": {
      "[UNK]": 0,
      "[CLS]": 1,
      "[SEP]": 2,
      "[PAD]": 3,
      "[MASK]": 4,
      "\t": 5,
      "\n": 6,
      "\u000b": 7,
      "\f": 8,
      "\r": 9,
      " ": 10,
      "!": 11,
      "\"": 12,
      "#": 13,
      "$": 14,
      "%": 15,
      "&": 16,
      "'": 17,
      "(": 18,
      ")": 19,
      "*": 20,
      "+": 21,
      ",": 22,
      "-": 23,
      ".": 24,
      "/": 25,
      "0": 26,
      "1": 27,
      "2": 28,
      "3": 29,
      "4": 30,
      "5": 31,
      "6": 32,
      "7": 33,
      "8": 34,
      "9": 35,
      ":": 36,
      ";": 37,
      "<": 38,
      "=": 39,
      ">": 40,
      "?": 41,
      "@": 42,
      "[": 43,
      "\\": 44,
      "]": 45,
      "^": 46,
      "_": 47,
      "`": 48,
      "a": 49,
      "b": 50,
      "c": 51,
      "d": 52,
      "e": 53,
      "f": 54,
      "g": 55,
      "h": 56,
      "i": 57,
      "j": 58,
      "k": 59,
      "l": 60,
      "m": 61,
      "n": 62,
      "o": 63,
      "p": 64,
      "q": 65,
      "r": 66,
      "s": 67,
      "t": 68,
      "u": 69,
      "v": 70,
      "w": 71,
      "x": 72,
      "y": 73,
      "z": 74,
      "{": 75,
      "|": 76,
      "}": 77,
      "~": 78,
      "a</w>": 79,
      "z</w>": 80,
      "3</w>": 81,
      "c</w>": 82,
      "e</w>": 83,
      "i</w>": 84,
      "u</w>": 85,
      "g</w>": 86,
      "n</w>": 87,
      "y</w>": 88,
      "s</w>": 89,
      "h</w>": 90,
      "f</w>": 91,
      "r</w>": 92,
      "m</w>": 93,
      "d</w>": 94,
      "0</w>": 95,
      "o</w>": 96,
      "5</w>": 97,
      "p</w>": 98,
      "l</w>": 99,
      "1</w>": 100,
      "v</w>": 101,
      "4</w>": 102,
      "w</w>": 103,
      "t</w>": 104,
      "7</w>": 105,
      "8</w>": 106,
      "9</w>": 107,
      "k</w>": 108,
      "x</w>": 109,
      "b</w>": 110,
      "6</w>": 111,
      "2</w>": 112,
      "j</w>": 113,
      "q</w>": 114,
      "%</w>": 115,
      "(</w>": 116,
      ")</w>": 117,
      "></w>": 118,
      "|</w>": 119,
      "$</w>": 120,
      "+</w>": 121,
      "}</w>": 122,
      "\"</w>": 123,
      "\\</w>": 124,
      "~</w>": 125,
      "_</w>": 126,
      "{</w>": 127,
      ".</w>": 128,
      "]</w>": 129,
      ";</w>": 130,
      ",</w>": 131,
      "*</w>": 132,
      "[</w>": 133,
      "^</w>": 134,
      "@</w>": 135,
      "`</w>": 136,
      "?</w>": 137,
      "<</w>": 138,
      "'</w>": 139,
      "/</w>": 140,
      "!</w>": 141,
      "#</w>": 142,
      "=</w>": 143,
      "-</w>": 144,
      "&</w>": 145,
      ":</w>": 146,
      "th": 147,
      "the</w>": 148,
      "in": 149,
      "an": 150,
      "er": 151,
      "re": 152,
      "ed</w>": 153,
      "ar": 154,
      "ti": 155,
      "en": 156,
      "of</w>": 157,
      "on": 158,
      "or": 159,
      "on</w>": 160,
      "er</w>": 161,
      "in</w>": 162,
      "and</w>": 163,
      "st": 164,
      "al": 165,
      "ro": 166,
      "it": 167,
      "es</w>": 168,
      "ing</w>": 169,
      "at": 170,
      "as</w>": 171,
      "ou": 172,
      "to</w>": 173,
      "ic": 174,
      "al</w>": 175,
      "an</w>": 176,
      "is</w>": 177,
      "is": 178,
      "ac": 179,
      "il": 180,
      "el": 181,
      "or</w>": 182,
      "am": 183,
      "co": 184,
      "as": 185,
      "ch": 186,
      "ati": 187,
      "ur": 188,
      "es": 189,
      "un": 190,
      "at</w>": 191,
      "ec": 192,
      "ol": 193,
      "ri": 194,
      "si": 195,
      "19": 196,
      "en</w>": 197,
      "di": 198,
      "was</w>": 199,
      "em": 200,
      "pl": 201,
      "wh": 202,
      "ly</w>": 203,
      "ra": 204,
      "li": 205,
      "le": 206,
      "ag": 207,
      "us": 208,
      "ad": 209,
      "ent</w>": 210,
      "for</w>": 211,
      "lo": 212,
      "ent": 213,
      "ir": 214,
      "se": 215,
      "con": 216,
      "by</w>": 217,
      "com": 218,
      "20": 219,
      "su": 220,
      "sh": 221,
      "de": 222,
      "be": 223,
      "ith</w>": 224,
      "ation</w>": 225,
      "ve</w>": 226,
      "pro": 227,
      "ers</w>": 228,
      "with</w>": 229,
      "ne": 230,
      "ab": 231,
      "ver": 232,
      "po": 233,
      "le</w>": 234,
      "ig": 235,
      "no": 236,
      "ha": 237,
      "ce</w>": 238,
      "for": 239,
      "st</w>": 240,
      "ap": 241,
      "ul": 242,
      "ere</w>": 243,
      "om": 244,
      "ar</w>": 245,
      "ex": 246,
      "it</w>": 247,
      "sp": 248,
      "that</w>": 249,
      "th</w>": 250,
      "tion</w>": 251,
      "fro": 252,
      "from</w>": 253,
      "oun": 254,
      "bu": 255,
      "mo": 256,
      "the": 257,
      "ma": 258,
      "ts</w>": 259,
      "vi": 260,
      "ons</w>": 261,
      "ter": 262,
      "ity</w>": 263,
      "to": 264,
      "du": 265,
      "he</w>": 266,
      "per": 267,
      "par": 268,
      "ci": 269,
      "qu": 270,
      "cl": 271,
      "pre": 272,
      "ted</w>": 273,
      "his</w>": 274,
      "ate</w>": 275,
      "ter</w>": 276,
      "bo": 277,
      "pe": 278,
      "we": 279,
      "tr": 280,
      "ch</w>": 281,
      "ds</w>": 282,
      "are</w>": 283,
      "str": 284,
      "ph": 285,
      "ther</w>": 286,
      "ing": 287,
      "im": 288,
      "au": 289,
      "200": 290,
      "ff": 291,
      "ated</w>": 292,
      "me": 293,
      "de</w>": 294,
      "man": 295,
      "mar": 296,
      "wor": 297,
      "ay": 298,
      "ay</w>": 299,
      "all</w>": 300,
      "were</w>": 301,
      "um": 302,
      "ver</w>": 303,
      "ich</w>": 304,
      "oo": 305,
      "so</w>": 306,
      "one</w>": 307,
      "hi": 308,
      "ser": 309,
      "te": 310,
      "ding</w>": 311,
      "ta": 312,
      "se</w>": 313,
      "ber</w>": 314,
      "which</w>": 315,
      "ary</w>": 316,
      "af": 317,
      "rec": 318,
      "op": 319,
      "oc": 320,
      "ame</w>": 321,
      "ded</w>": 322,
      "gh": 323,
      "ge</w>": 324,
      "age</w>": 325,
      "por": 326,
      "be</w>": 327,
      "wn</w>": 328,
      "ir</w>": 329,
      "ine</w>": 330,
      "red</w>": 331,
      "der</w>": 332,
      "ic</w>": 333,
      "onal</w>": 334,
      "201": 335,
      "ally</w>": 336,
      "est</w>": 337,
      "ld</w>": 338,
      "ear": 339,
      "ty</w>": 340,
      "ies</w>": 341,
      "also</w>": 342,
      "ran": 343,
      "ia</w>": 344,
      "pu": 345,
      "la": 346,
      "its</w>": 347,
      "tim": 348,
      "ks</w>": 349,
      "ev": 350,
      "fir": 351,
      "this</w>": 352,
      "tur": 353,
      "18": 354,
      "rou": 355,
      "199": 356,
      "fe": 357,
      "bl": 358,
      "had</w>": 359,
      "us</w>": 360,
      "duc": 361,
      "so": 362,
      "der": 363,
      "ho": 364,
      "clu": 365,
      "out</w>": 366,
      "gu": 367,
      "gi": 368,
      "col": 369,
      "do": 370,
      "comm": 371,
      "ment</w>": 372,
      "ke</w>": 373,
      "min": 374,
      "ard</w>": 375,
      "our": 376,
      "go": 377,
      "et</w>": 378,
      "new</w>": 379,
      "av": 380,
      "tw": 381,
      "igh": 382,
      "tic": 383,
      "ents</w>": 384,
      "coun": 385,
      "fi": 386,
      "form": 387,
      "cent": 388,
      "all": 389,
      "first</w>": 390,
      "dis": 391,
      "ple</w>": 392,
      "ong</w>": 393,
      "ad</w>": 394,
      "sch": 395,
      "are": 396,
      "jo": 397,
      "el</w>": 398,
      "has</w>": 399,
      "stor": 400,
      "te</w>": 401,
      "gre": 402,
      "ru": 403,
      "ces</w>": 404,
      "tu": 405,
      "he": 406,
      "ill": 407,
      "not</w>": 408,
      "land</w>": 409,
      "other</w>": 410,
      "ations</w>": 411,
      "ish": 412,
      "gen": 413,
      "gra": 414,
      "amer": 415,
      "but</w>": 416,
      "ast</w>": 417,
      "eng": 418,
      "their</w>": 419,
      "uni": 420,
      "ved</w>": 421,
      "pres": 422,
      "ican</w>": 423,
      "gh</w>": 424,
      "ting</w>": 425,
      "tra": 426,
      "ore</w>": 427,
      "pol": 428,
      "cre": 429,
      "ates</w>": 430,
      "ali": 431,
      "inter": 432,
      "ber": 433,
      "ess</w>": 434,
      "after</w>": 435,
      "sec": 436,
      "fer": 437,
      "nor": 438,
      "est": 439,
      "nati": 440,
      "des": 441,
      "ence</w>": 442,
      "pr": 443,
      "sy": 444,
      "198": 445,
      "ice</w>": 446,
      "man</w>": 447,
      "am</w>": 448,
      "king</w>": 449,
      "ist</w>": 450,
      "ish</w>": 451,
      "id": 452,
      "ited</w>": 453,
      "vel": 454,
      "who</w>": 455,
      "cont": 456,
      "ical</w>": 457,
      "ember</w>": 458,
      "have</w>": 459,
      "mon": 460,
      "car": 461,
      "fin": 462,
      "cor": 463,
      "fil": 464,
      "shi": 465,
      "ke": 466,
      "ten": 467,
      "lan": 468,
      "play": 469,
      "ste": 470,
      "ite</w>": 471,
      "low": 472,
      "they</w>": 473,
      "bas": 474,
      "two</w>": 475,
      "ge": 476,
      "ould</w>": 477,
      "ous</w>": 478,
      "inclu": 479,
      "ren": 480,
      "lin": 481,
      "son</w>": 482,
      "mil": 483,
      "ant</w>": 484,
      "ace</w>": 485,
      "pi": 486,
      "ack</w>": 487,
      "ater</w>": 488,
      "00</w>": 489,
      "ome</w>": 490,
      "ell</w>": 491,
      "can": 492,
      "wi": 493,
      "loc": 494,
      "able</w>": 495,
      "197": 496,
      "tions</w>": 497,
      "ese</w>": 498,
      "sion</w>": 499,
      "ght</w>": 500,
      "ain": 501,
      "her</w>": 502,
      "bri": 503,
      "off": 504,
      "time</w>": 505,
      "pan": 506,
      "american</w>": 507,
      "ties</w>": 508,
      "dec": 509,
      "als</w>": 510,
      "been</w>": 511,
      "ass": 512,
      "char": 513,
      "ca": 514,
      "tor": 515,
      "mu": 516,
      "ed": 517,
      "rit": 518,
      "our</w>": 519,
      "sou": 520,
      "ans</w>": 521,
      "ton</w>": 522,
      "uring</w>": 523,
      "uc": 524,
      "ess": 525,
      "ned</w>": 526,
      "ep": 527,
      "national</w>": 528,
      "isi": 529,
      "ang": 530,
      "up</w>": 531,
      "id</w>": 532,
      "used</w>": 533,
      "ial</w>": 534,
      "ian</w>": 535,
      "wil": 536,
      "when</w>": 537,
      "bor": 538,
      "att": 539,
      "ance</w>": 540,
      "there</w>": 541,
      "fl": 542,
      "way</w>": 543,
      "and": 544,
      "ure</w>": 545,
      "ving</w>": 546,
      "cri": 547,
      "hou": 548,
      "ell": 549,
      "ople</w>": 550,
      "um</w>": 551,
      "sts</w>": 552,
      "ue</w>": 553,
      "elec": 554,
      "iz": 555,
      "war": 556,
      "ree</w>": 557,
      "pri": 558,
      "bec": 559,
      "196": 560,
      "spec": 561,
      "more</w>": 562,
      "res</w>": 563,
      "ak": 564,
      "use</w>": 565,
      "during</w>": 566,
      "into</w>": 567,
      "most</w>": 568,
      "histor": 569,
      "tri": 570,
      "br": 571,
      "sti": 572,
      "ings</w>": 573,
      "vers": 574,
      "old</w>": 575,
      "ps</w>": 576,
      "bro": 577,
      "people</w>": 578,
      "pul": 579,
      "og": 580,
      "she</w>": 581,
      "kno": 582,
      "ences</w>": 583,
      "enti": 584,
      "serv": 585,
      "ther": 586,
      "bet": 587,
      "pos": 588,
      "ade</w>": 589,
      "ach": 590,
      "pen": 591,
      "ric": 592,
      "ound</w>": 593,
      "refer": 594,
      "ms</w>": 595,
      "soci": 596,
      "bi": 597,
      "ile</w>": 598,
      "stu": 599,
      "city</w>": 600,
      "united</w>": 601,
      "ye": 602,
      "only</w>": 603,
      "sho": 604,
      "ju": 605,
      "ury</w>": 606,
      "ann": 607,
      "produc": 608,
      "air": 609,
      "ished</w>": 610,
      "may</w>": 611,
      "ears</w>": 612,
      "ust</w>": 613,
      "har": 614,
      "les</w>": 615,
      "ool</w>": 616,
      "ss</w>": 617,
      "over</w>": 618,
      "fol": 619,
      "sa": 620,
      "ship</w>": 621,
      "many</w>": 622,
      "ster": 623,
      "ft</w>": 624,
      "world</w>": 625,
      "ari": 626,
      "re</w>": 627,
      "school</w>": 628,
      "years</w>": 629,
      "ely</w>": 630,
      "tran": 631,
      "can</w>": 632,
      "ach</w>": 633,
      "ement</w>": 634,
      "ster</w>": 635,
      "no</w>": 636,
      "cap": 637,
      "sub": 638,
      "some</w>": 639,
      "fac": 640,
      "buil": 641,
      "tive</w>": 642,
      "ily</w>": 643,
      "fam": 644,
      "lar": 645,
      "states</w>": 646,
      "ok</w>": 647,
      "ase</w>": 648,
      "fu": 649,
      "gr": 650,
      "gener": 651,
      "would</w>": 652,
      "tor</w>": 653,
      "popul": 654,
      "ture</w>": 655,
      "ry</w>": 656,
      "fe</w>": 657,
      "ins</w>": 658,
      "ision</w>": 659,
      "194": 660,
      "such</w>": 661,
      "tro": 662,
      "tic</w>": 663,
      "eld</w>": 664,
      "day</w>": 665,
      "state</w>": 666,
      "ween</w>": 667,
      "ign</w>": 668,
      "univers": 669,
      "ni": 670,
      "recor": 671,
      "195": 672,
      "ale</w>": 673,
      "ws</w>": 674,
      "year</w>": 675,
      "between</w>": 676,
      "sc": 677,
      "hol": 678,
      "ger": 679,
      "ves</w>": 680,
      "sid": 681,
      "sur": 682,
      "ince</w>": 683,
      "fa": 684,
      "pa": 685,
      "et": 686,
      "nal</w>": 687,
      "bar": 688,
      "nam": 689,
      "ning</w>": 690,
      "ten</w>": 691,
      "ong": 692,
      "sm": 693,
      "indi": 694,
      "ough</w>": 695,
      "gover": 696,
      "ight</w>": 697,
      "tre": 698,
      "throu": 699,
      "fic": 700,
      "num": 701,
      "olog": 702,
      "later</w>": 703,
      "than</w>": 704,
      "bel": 705,
      "war</w>": 706,
      "vo": 707,
      "tis": 708,
      "writ": 709,
      "sig": 710,
      "where</w>": 711,
      "cu": 712,
      "bur": 713,
      "sup": 714,
      "ating</w>": 715,
      "ond</w>": 716,
      "about</w>": 717,
      "il</w>": 718,
      "mat": 719,
      "ood</w>": 720,
      "under</w>": 721,
      "sing": 722,
      "known</w>": 723,
      "of": 724,
      "joh": 725,
      "vol": 726,
      "references</w>": 727,
      "university</w>": 728,
      "oper": 729,
      "ked</w>": 730,
      "three</w>": 731,
      "ble</w>": 732,
      "eu": 733,
      "while</w>": 734,
      "sk": 735,
      "cur": 736,
      "sol": 737,
      "well</w>": 738,
      "grou": 739,
      "ect</w>": 740,
      "gro": 741,
      "mem": 742,
      "pp": 743,
      "ant": 744,
      "arm": 745,
      "work</w>": 746,
      "struc": 747,
      "ain</w>": 748,
      "century</w>": 749,
      "govern": 750,
      "star": 751,
      "compan": 752,
      "me</w>": 753,
      "line</w>": 754,
      "graph": 755,
      "led</w>": 756,
      "him</w>": 757,
      "mi": 758,
      "part</w>": 759,
      "then</w>": 760,
      "publ": 761,
      "mis": 762,
      "win": 763,
      "fran": 764,
      "hig": 765,
      "rele": 766,
      "made</w>": 767,
      "film</w>": 768,
      "mus": 769,
      "these</w>": 770,
      "ors</w>": 771,
      "ob": 772,
      "0s</w>": 773,
      "port</w>": 774,
      "sel": 775,
      "tt": 776,
      "dy</w>": 777,
      "ased</w>": 778,
      "follow": 779,
      "yp": 780,
      "direc": 781,
      "20</w>": 782,
      "reg": 783,
      "orig": 784,
      "dre": 785,
      "tel": 786,
      "ward</w>": 787,
      "rel": 788,
      "poin": 789,
      "ined</w>": 790,
      "dic": 791,
      "org": 792,
      "ames</w>": 793,
      "end</w>": 794,
      "albu": 795,
      "ve": 796,
      "very</w>": 797,
      "bli": 798,
      "ei": 799,
      "dem": 800,
      "fore</w>": 801,
      "series</w>": 802,
      "south</w>": 803,
      "17": 804,
      "ball</w>": 805,
      "tho": 806,
      "az": 807,
      "sul": 808,
      "nov": 809,
      "sic</w>": 810,
      "193": 811,
      "cam": 812,
      "ays</w>": 813,
      "ici": 814,
      "history</w>": 815,
      "devel": 816,
      "appe": 817,
      "including</w>": 818,
      "compl": 819,
      "with": 820,
      "abl": 821,
      "ced</w>": 822,
      "ths</w>": 823,
      "cro": 824,
      "her": 825,
      "through</w>": 826,
      "ory</w>": 827,
      "fo": 828,
      "10</w>": 829,
      "cer": 830,
      "town</w>": 831,
      "county</w>": 832,
      "became</w>": 833,
      "chan": 834,
      "wn": 835,
      "beg": 836,
      "call": 837,
      "being</w>": 838,
      "don</w>": 839,
      "side</w>": 840,
      "north</w>": 841,
      "low</w>": 842,
      "both</w>": 843,
      "early</w>": 844,
      "tish</w>": 845,
      "west</w>": 846,
      "da": 847,
      "tical</w>": 848,
      "ters</w>": 849,
      "stri": 850,
      "high</w>": 851,
      "name</w>": 852,
      "val": 853,
      "ason</w>": 854,
      "see</w>": 855,
      "den": 856,
      "establ": 857,
      "ris": 858,
      "second</w>": 859,
      "medi": 860,
      "des</w>": 861,
      "ire</w>": 862,
      "ban": 863,
      "exter": 864,
      "ative</w>": 865,
      "fre": 866,
      "ley</w>": 867,
      "poli": 868,
      "develop": 869,
      "born</w>": 870,
      "vie": 871,
      "ack": 872,
      "area</w>": 873,
      "arch": 874,
      "stre": 875,
      "howe": 876,
      "however</w>": 877,
      "act</w>": 878,
      "though</w>": 879,
      "them</w>": 880,
      "ism</w>": 881,
      "publi": 882,
      "und</w>": 883,
      "sever": 884,
      "origin": 885,
      "sen": 886,
      "before</w>": 887,
      "external</w>": 888,
      "sco": 889,
      "ass</w>": 890,
      "life</w>": 891,
      "mini": 892,
      "clo": 893,
      "plac": 894,
      "public</w>": 895,
      "bers</w>": 896,
      "links</w>": 897,
      "diff": 898,
      "regi": 899,
      "ics</w>": 900,
      "cul": 901,
      "foo": 902,
      "stric": 903,
      "bir": 904,
      "come</w>": 905,
      "dr": 906,
      "spor": 907,
      "eg": 908,
      "cc": 909,
      "yor": 910,
      "john</w>": 911,
      "tes</w>": 912,
      "ven": 913,
      "music</w>": 914,
      "chil": 915,
      "18</w>": 916,
      "del": 917,
      "bre": 918,
      "vari": 919,
      "since</w>": 920,
      "ner</w>": 921,
      "pt": 922,
      "ii</w>": 923,
      "qui": 924,
      "000</w>": 925,
      "ina</w>": 926,
      "stern</w>": 927,
      "unti": 928,
      "maj": 929,
      "ven</w>": 930,
      "high": 931,
      "peri": 932,
      "sted</w>": 933,
      "jun": 934,
      "stitu": 935,
      "number</w>": 936,
      "until</w>": 937,
      "contin": 938,
      "consi": 939,
      "form</w>": 940,
      "called</w>": 941,
      "government</w>": 942,
      "cour": 943,
      "pat": 944,
      "mer": 945,
      "group</w>": 946,
      "hu": 947,
      "dge</w>": 948,
      "jan": 949,
      "ili": 950,
      "pow": 951,
      "try</w>": 952,
      "posi": 953,
      "family</w>": 954,
      "british</w>": 955,
      "commun": 956,
      "house</w>": 957,
      "cham": 958,
      "je": 959,
      "tional</w>": 960,
      "ash": 961,
      "ill</w>": 962,
      "again": 963,
      "against</w>": 964,
      "sed</w>": 965,
      "band</w>": 966,
      "tly</w>": 967,
      "do</w>": 968,
      "york</w>": 969,
      "several</w>": 970,
      "offic": 971,
      "ales</w>": 972,
      "leg": 973,
      "sum": 974,
      "sci": 975,
      "four</w>": 976,
      "12</w>": 977,
      "ses</w>": 978,
      "album</w>": 979,
      "acc": 980,
      "fun": 981,
      "tain</w>": 982,
      "stem</w>": 983,
      "ages</w>": 984,
      "fr": 985,
      "team</w>": 986,
      "based</w>": 987,
      "game</w>": 988,
      "organ": 989,
      "season</w>": 990,
      "lit": 991,
      "engl": 992,
      "vis": 993,
      "succ": 994,
      "set</w>": 995,
      "ko": 996,
      "self</w>": 997,
      "if</w>": 998,
      "company</w>": 999,
      "hel": 1000,
      "feat": 1001,
      "typ": 1002,
      "192": 1003,
      "foun": 1004,
      "vic": 1005,
      "river</w>": 1006,
      "trans": 1007,
      "ath</w>": 1008,
      "general</w>": 1009,
      "population</w>": 1010,
      "mic": 1011,
      "leag": 1012,
      "english</w>": 1013,
      "16": 1014,
      "co</w>": 1015,
      "sto": 1016,
      "wom": 1017,
      "lead": 1018,
      "gar": 1019,
      "air</w>": 1020,
      "chur": 1021,
      "dition</w>": 1022,
      "plo": 1023,
      "now</w>": 1024,
      "den</w>": 1025,
      "system</w>": 1026,
      "foot": 1027,
      "following</w>": 1028,
      "euro": 1029,
      "pe</w>": 1030,
      "mag": 1031,
      "mor": 1032,
      "cy</w>": 1033,
      "ome": 1034,
      "tle</w>": 1035,
      "ology</w>": 1036,
      "gl": 1037,
      "any</w>": 1038,
      "coll": 1039,
      "charac": 1040,
      "former</w>": 1041,
      "like</w>": 1042,
      "ams</w>": 1043,
      "sw": 1044,
      "distric": 1045,
      "presid": 1046,
      "out": 1047,
      "same</w>": 1048,
      "stan": 1049,
      "austr": 1050,
      "ying</w>": 1051,
      "ograph": 1052,
      "dio</w>": 1053,
      "dra": 1054,
      "ea": 1055,
      "times</w>": 1056,
      "pal": 1057,
      "bus": 1058,
      "will</w>": 1059,
      "ze</w>": 1060,
      "ise</w>": 1061,
      "emp": 1062,
      "cas": 1063,
      "each</w>": 1064,
      "hy": 1065,
      "place</w>": 1066,
      "field</w>": 1067,
      "15</w>": 1068,
      "ek</w>": 1069,
      "aug": 1070,
      "party</w>": 1071,
      "vir": 1072,
      "ll</w>": 1073,
      "league</w>": 1074,
      "yo": 1075,
      "ta</w>": 1076,
      "international</w>": 1077,
      "station</w>": 1078,
      "rus": 1079,
      "arti": 1080,
      "released</w>": 1081,
      "lu": 1082,
      "11</w>": 1083,
      "thern</w>": 1084,
      "back</w>": 1085,
      "dent</w>": 1086,
      "retur": 1087,
      "os</w>": 1088,
      "ger</w>": 1089,
      "bru": 1090,
      "ected</w>": 1091,
      "ered</w>": 1092,
      "rema": 1093,
      "inv": 1094,
      "ining</w>": 1095,
      "ful": 1096,
      "ments</w>": 1097,
      "ility</w>": 1098,
      "provi": 1099,
      "21</w>": 1100,
      "nat": 1101,
      "ga": 1102,
      "resul": 1103,
      "comple": 1104,
      "contro": 1105,
      "acti": 1106,
      "rac": 1107,
      "present": 1108,
      "sing</w>": 1109,
      "site</w>": 1110,
      "lion</w>": 1111,
      "colle": 1112,
      "educ": 1113,
      "tal</w>": 1114,
      "east</w>": 1115,
      "sept": 1116,
      "lim": 1117,
      "road</w>": 1118,
      "per</w>": 1119,
      "end": 1120,
      "differ": 1121,
      "september</w>": 1122,
      "order</w>": 1123,
      "right</w>": 1124,
      "jap": 1125,
      "members</w>": 1126,
      "div": 1127,
      "onom": 1128,
      "ause</w>": 1129,
      "ety</w>": 1130,
      "fri": 1131,
      "uary</w>": 1132,
      "ous": 1133,
      "march</w>": 1134,
      "ually</w>": 1135,
      "roy": 1136,
      "adi": 1137,
      "tics</w>": 1138,
      "associ": 1139,
      "bra": 1140,
      "eff": 1141,
      "spon": 1142,
      "care": 1143,
      "od</w>": 1144,
      "ys": 1145,
      "ful</w>": 1146,
      "octo": 1147,
      "home</w>": 1148,
      "tici": 1149,
      "recei": 1150,
      "ford</w>": 1151,
      "telev": 1152,
      "sive</w>": 1153,
      "ini": 1154,
      "ym": 1155,
      "port": 1156,
      "roc": 1157,
      "october</w>": 1158,
      "15": 1159,
      "fur": 1160,
      "hor": 1161,
      "over": 1162,
      "ne</w>": 1163,
      "named</w>": 1164,
      "ems</w>": 1165,
      "up": 1166,
      "because</w>": 1167,
      "pur": 1168,
      "prof": 1169,
      "january</w>": 1170,
      "ual</w>": 1171,
      "long</w>": 1172,
      "june</w>": 1173,
      "college</w>": 1174,
      "major</w>": 1175,
      "lon": 1176,
      "left</w>": 1177,
      "30</w>": 1178,
      "shor": 1179,
      "ril</w>": 1180,
      "prin": 1181,
      "14</w>": 1182,
      "best</w>": 1183,
      "ai": 1184,
      "television</w>": 1185,
      "trac": 1186,
      "tion": 1187,
      "ica</w>": 1188,
      "plan": 1189,
      "church</w>": 1190,
      "under": 1191,
      "wards</w>": 1192,
      "july</w>": 1193,
      "med": 1194,
      "proc": 1195,
      "champi": 1196,
      "new": 1197,
      "district</w>": 1198,
      "tech": 1199,
      "vill": 1200,
      "16</w>": 1201,
      "service</w>": 1202,
      "2006</w>": 1203,
      "willi": 1204,
      "due</w>": 1205,
      "played</w>": 1206,
      "book</w>": 1207,
      "april</w>": 1208,
      "vil": 1209,
      "continu": 1210,
      "appro": 1211,
      "around</w>": 1212,
      "formed</w>": 1213,
      "auth": 1214,
      "ital</w>": 1215,
      "ects</w>": 1216,
      "men</w>": 1217,
      "mul": 1218,
      "tex": 1219,
      "ker</w>": 1220,
      "began</w>": 1221,
      "25</w>": 1222,
      "sour": 1223,
      "games</w>": 1224,
      "13</w>": 1225,
      "thir": 1226,
      "ef": 1227,
      "ures</w>": 1228,
      "centr": 1229,
      "ular</w>": 1230,
      "located</w>": 1231,
      "pers": 1232,
      "ana</w>": 1233,
      "august</w>": 1234,
      "found</w>": 1235,
      "fren": 1236,
      "2010</w>": 1237,
      "open": 1238,
      "ns</w>": 1239,
      "november</w>": 1240,
      "sty": 1241,
      "2005</w>": 1242,
      "ath": 1243,
      "play</w>": 1244,
      "langu": 1245,
      "adv": 1246,
      "depen": 1247,
      "could</w>": 1248,
      "ine": 1249,
      "exam": 1250,
      "list</w>": 1251,
      "december</w>": 1252,
      "water</w>": 1253,
      "off</w>": 1254,
      "squ": 1255,
      "manag": 1256,
      "desig": 1257,
      "established</w>": 1258,
      "built</w>": 1259,
      "rail": 1260,
      "val</w>": 1261,
      "park</w>": 1262,
      "190": 1263,
      "ham": 1264,
      "ey</w>": 1265,
      "french</w>": 1266,
      "fore": 1267,
      "hal": 1268,
      "did</w>": 1269,
      "part": 1270,
      "living</w>": 1271,
      "pass": 1272,
      "bert</w>": 1273,
      "although</w>": 1274,
      "non</w>": 1275,
      "local</w>": 1276,
      "players</w>": 1277,
      "read": 1278,
      "another</w>": 1279,
      "ada</w>": 1280,
      "dom": 1281,
      "show</w>": 1282,
      "batt": 1283,
      "dered</w>": 1284,
      "tors</w>": 1285,
      "la</w>": 1286,
      "died</w>": 1287,
      "doc": 1288,
      "accor": 1289,
      "art</w>": 1290,
      "alian</w>": 1291,
      "ently</w>": 1292,
      "those</w>": 1293,
      "served</w>": 1294,
      "ject</w>": 1295,
      "using</w>": 1296,
      "center</w>": 1297,
      "17</w>": 1298,
      "curren": 1299,
      "chi": 1300,
      "bs</w>": 1301,
      "wal": 1302,
      "cy": 1303,
      "2000</w>": 1304,
      "sting</w>": 1305,
      "often</w>": 1306,
      "descri": 1307,
      "ick</w>": 1308,
      "bal": 1309,
      "spe": 1310,
      "mid": 1311,
      "career</w>": 1312,
      "ection</w>": 1313,
      "dom</w>": 1314,
      "large</w>": 1315,
      "ator</w>": 1316,
      "won</w>": 1317,
      "2007</w>": 1318,
      "along</w>": 1319,
      "mc": 1320,
      "ken</w>": 1321,
      "wa": 1322,
      "19</w>": 1323,
      "fem": 1324,
      "member</w>": 1325,
      "president</w>": 1326,
      "boo": 1327,
      "fied</w>": 1328,
      "some": 1329,
      "london</w>": 1330,
      "light</w>": 1331,
      "cra": 1332,
      "club</w>": 1333,
      "army</w>": 1334,
      "what</w>": 1335,
      "films</w>": 1336,
      "50</w>": 1337,
      "law</w>": 1338,
      "ben": 1339,
      "ket</w>": 1340,
      "dren</w>": 1341,
      "death</w>": 1342,
      "aff": 1343,
      "children</w>": 1344,
      "itary</w>": 1345,
      "down</w>": 1346,
      "na</w>": 1347,
      "women</w>": 1348,
      "song</w>": 1349,
      "atic</w>": 1350,
      "run": 1351,
      "ie</w>": 1352,
      "arch</w>": 1353,
      "even</w>": 1354,
      "ak</w>": 1355,
      "10": 1356,
      "original</w>": 1357,
      "ring</w>": 1358,
      "2004</w>": 1359,
      "white</w>": 1360,
      "hon": 1361,
      "ines</w>": 1362,
      "24</w>": 1363,
      "incre": 1364,
      "mer</w>": 1365,
      "mun": 1366,
      "great</w>": 1367,
      "2008</w>": 1368,
      "german</w>": 1369,
      "respon": 1370,
      "hun": 1371,
      "gran": 1372,
      "ged</w>": 1373,
      "conn": 1374,
      "cen": 1375,
      "within</w>": 1376,
      "moun": 1377,
      "position</w>": 1378,
      "vel</w>": 1379,
      "ef</w>": 1380,
      "marri": 1381,
      "view</w>": 1382,
      "ington</w>": 1383,
      "main</w>": 1384,
      "da</w>": 1385,
      "single</w>": 1386,
      "cat": 1387,
      "ney</w>": 1388,
      "ling</w>": 1389,
      "cep": 1390,
      "def": 1391,
      "ders</w>": 1392,
      "ental</w>": 1393,
      "own</w>": 1394,
      "reli": 1395,
      "five</w>": 1396,
      "kes</w>": 1397,
      "prov": 1398,
      "ston</w>": 1399,
      "189": 1400,
      "small</w>": 1401,
      "febru": 1402,
      "february</w>": 1403,
      "wing</w>": 1404,
      "took</w>": 1405,
      "tt</w>": 1406,
      "issu": 1407,
      "published</w>": 1408,
      "ately</w>": 1409,
      "cal": 1410,
      "include</w>": 1411,
      "go</w>": 1412,
      "according</w>": 1413,
      "ly": 1414,
      "tem": 1415,
      "present</w>": 1416,
      "vely</w>": 1417,
      "if": 1418,
      "cou": 1419,
      "football</w>": 1420,
      "sal": 1421,
      "construc": 1422,
      "ality</w>": 1423,
      "power</w>": 1424,
      "sequ": 1425,
      "sus</w>": 1426,
      "flu": 1427,
      "version</w>": 1428,
      "hen": 1429,
      "hum": 1430,
      "organiz": 1431,
      "head</w>": 1432,
      "din": 1433,
      "last</w>": 1434,
      "essi": 1435,
      "don": 1436,
      "ham</w>": 1437,
      "om</w>": 1438,
      "dro": 1439,
      "posed</w>": 1440,
      "phil": 1441,
      "esti": 1442,
      "ars</w>": 1443,
      "less</w>": 1444,
      "cho": 1445,
      "bed</w>": 1446,
      "press</w>": 1447,
      "2009</w>": 1448,
      "military</w>": 1449,
      "arly</w>": 1450,
      "western</w>": 1451,
      "black</w>": 1452,
      "still</w>": 1453,
      "late</w>": 1454,
      "dan": 1455,
      "ony</w>": 1456,
      "pic": 1457,
      "moder": 1458,
      "my</w>": 1459,
      "ler</w>": 1460,
      "house": 1461,
      "ised</w>": 1462,
      "player</w>": 1463,
      "youn": 1464,
      "key</w>": 1465,
      "ce": 1466,
      "thers</w>": 1467,
      "held</w>": 1468,
      "ens</w>": 1469,
      "sim": 1470,
      "main": 1471,
      "econom": 1472,
      "ail": 1473,
      "we</w>": 1474,
      "wat": 1475,
      "2011</w>": 1476,
      "country</w>": 1477,
      "ements</w>": 1478,
      "ols</w>": 1479,
      "ys</w>": 1480,
      "political</w>": 1481,
      "indu": 1482,
      "works</w>": 1483,
      "22</w>": 1484,
      "said</w>": 1485,
      "final</w>": 1486,
      "gg": 1487,
      "lands</w>": 1488,
      "them": 1489,
      "nav": 1490,
      "chang": 1491,
      "third</w>": 1492,
      "much</w>": 1493,
      "ared</w>": 1494,
      "ka</w>": 1495,
      "1999</w>": 1496,
      "lat": 1497,
      "busin": 1498,
      "moved</w>": 1499,
      "feder": 1500,
      "tan": 1501,
      "point</w>": 1502,
      "han": 1503,
      "pho": 1504,
      "island</w>": 1505,
      "formation</w>": 1506,
      "dri": 1507,
      "que": 1508,
      "vide": 1509,
      "ices</w>": 1510,
      "england</w>": 1511,
      "king": 1512,
      "ats</w>": 1513,
      "2003</w>": 1514,
      "included</w>": 1515,
      "ori": 1516,
      "assi": 1517,
      "nia</w>": 1518,
      "among</w>": 1519,
      "techn": 1520,
      "search</w>": 1521,
      "million</w>": 1522,
      "cali": 1523,
      "top</w>": 1524,
      "street</w>": 1525,
      "nel</w>": 1526,
      "style</w>": 1527,
      "development</w>": 1528,
      "different</w>": 1529,
      "verage</w>": 1530,
      "central</w>": 1531,
      "building</w>": 1532,
      "iso": 1533,
      "anim": 1534,
      "na": 1535,
      "188": 1536,
      "els</w>": 1537,
      "que</w>": 1538,
      "ness</w>": 1539,
      "institu": 1540,
      "ches</w>": 1541,
      "dist": 1542,
      "stry</w>": 1543,
      "lab": 1544,
      "sil": 1545,
      "you</w>": 1546,
      "ground</w>": 1547,
      "represent": 1548,
      "comp": 1549,
      "geor": 1550,
      "alia</w>": 1551,
      "court</w>": 1552,
      "award</w>": 1553,
      "aim": 1554,
      "100</w>": 1555,
      "production</w>": 1556,
      "cial</w>": 1557,
      "align</w>": 1558,
      "ref": 1559,
      "ph</w>": 1560,
      "education</w>": 1561,
      "ones</w>": 1562,
      "14": 1563,
      "dar": 1564,
      "near</w>": 1565,
      "onship</w>": 1566,
      "2012</w>": 1567,
      "del</w>": 1568,
      "song": 1569,
      "union</w>": 1570,
      "dents</w>": 1571,
      "sem": 1572,
      "father</w>": 1573,
      "force</w>": 1574,
      "mary</w>": 1575,
      "bran": 1576,
      "ba": 1577,
      "tation</w>": 1578,
      "compe": 1579,
      "ghts</w>": 1580,
      "further</w>": 1581,
      "cr": 1582,
      "cle": 1583,
      "dou": 1584,
      "board</w>": 1585,
      "2001</w>": 1586,
      "2002</w>": 1587,
      "ata</w>": 1588,
      "exten": 1589,
      "language</w>": 1590,
      "election</w>": 1591,
      "ants</w>": 1592,
      "ography</w>": 1593,
      "simil": 1594,
      "intro": 1595,
      "table</w>": 1596,
      "william</w>": 1597,
      "just</w>": 1598,
      "placed</w>": 1599,
      "ama</w>": 1600,
      "stat": 1601,
      "ways</w>": 1602,
      "received</w>": 1603,
      "inc": 1604,
      "elected</w>": 1605,
      "sit": 1606,
      "adem": 1607,
      "cil</w>": 1608,
      "community</w>": 1609,
      "ering</w>": 1610,
      "ships</w>": 1611,
      "initi": 1612,
      "appl": 1613,
      "town": 1614,
      "mal": 1615,
      "ow": 1616,
      "tv</w>": 1617,
      "bc</w>": 1618,
      "net": 1619,
      "progr": 1620,
      "royal</w>": 1621,
      "village</w>": 1622,
      "ery</w>": 1623,
      "ural</w>": 1624,
      "larg": 1625,
      "council</w>": 1626,
      "san": 1627,
      "repor": 1628,
      "bridge</w>": 1629,
      "division</w>": 1630,
      "func": 1631,
      "ically</w>": 1632,
      "indepen": 1633,
      "oned</w>": 1634,
      "record</w>": 1635,
      "ditional</w>": 1636,
      "ples</w>": 1637,
      "radio</w>": 1638,
      "official</w>": 1639,
      "allow": 1640,
      "sible</w>": 1641,
      "23</w>": 1642,
      "186": 1643,
      "ution</w>": 1644,
      "academ": 1645,
      "dies</w>": 1646,
      "ously</w>": 1647,
      "ma</w>": 1648,
      "sions</w>": 1649,
      "1997</w>": 1650,
      "davi": 1651,
      "fron": 1652,
      "action</w>": 1653,
      "canada</w>": 1654,
      "scho": 1655,
      "role</w>": 1656,
      "james</w>": 1657,
      "video</w>": 1658,
      "2013</w>": 1659,
      "187": 1660,
      "broad": 1661,
      "support</w>": 1662,
      "period</w>": 1663,
      "head": 1664,
      "cir": 1665,
      "pris": 1666,
      "stand": 1667,
      "given</w>": 1668,
      "zed</w>": 1669,
      "corpor": 1670,
      "tom": 1671,
      "class</w>": 1672,
      "introduc": 1673,
      "che": 1674,
      "atten": 1675,
      "dings</w>": 1676,
      "califor": 1677,
      "live</w>": 1678,
      "prot": 1679,
      "produced</w>": 1680,
      "announ": 1681,
      "ick": 1682,
      "six</w>": 1683,
      "cover": 1684,
      "episo": 1685,
      "quar": 1686,
      "cel": 1687,
      "ze": 1688,
      "every</w>": 1689,
      "thing</w>": 1690,
      "nex": 1691,
      "russi": 1692,
      "change</w>": 1693,
      "13": 1694,
      "again</w>": 1695,
      "wood</w>": 1696,
      "average</w>": 1697,
      "jour": 1698,
      "ority</w>": 1699,
      "vil</w>": 1700,
      "gol": 1701,
      "inf": 1702,
      "california</w>": 1703,
      "alth</w>": 1704,
      "dence</w>": 1705,
      "uses</w>": 1706,
      "beli": 1707,
      "get</w>": 1708,
      "dy": 1709,
      "rock</w>": 1710,
      "import": 1711,
      "27</w>": 1712,
      "2014</w>": 1713,
      "kill": 1714,
      "ep</w>": 1715,
      "hard</w>": 1716,
      "make</w>": 1717,
      "office</w>": 1718,
      "san</w>": 1719,
      "written</w>": 1720,
      "modern</w>": 1721,
      "hom": 1722,
      "records</w>": 1723,
      "ra</w>": 1724,
      "sett": 1725,
      "28</w>": 1726,
      "example</w>": 1727,
      "26</w>": 1728,
      "success": 1729,
      "lou": 1730,
      "ah</w>": 1731,
      "male</w>": 1732,
      "region</w>": 1733,
      "ville</w>": 1734,
      "europe": 1735,
      "short</w>": 1736,
      "track</w>": 1737,
      "previ": 1738,
      "george</w>": 1739,
      "night</w>": 1740,
      "tin</w>": 1741,
      "having</w>": 1742,
      "without</w>": 1743,
      "various</w>": 1744,
      "aw": 1745,
      "take</w>": 1746,
      "invol": 1747,
      "40</w>": 1748,
      "tar": 1749,
      "sam": 1750,
      "total</w>": 1751,
      "hear": 1752,
      "story</w>": 1753,
      "comb": 1754,
      "my": 1755,
      "fel": 1756,
      "become</w>": 1757,
      "days</w>": 1758,
      "ized</w>": 1759,
      "canadi": 1760,
      "flo": 1761,
      "common</w>": 1762,
      "australia</w>": 1763,
      "alist</w>": 1764,
      "anese</w>": 1765,
      "amm": 1766,
      "lor": 1767,
      "america</w>": 1768,
      "control</w>": 1769,
      "2015</w>": 1770,
      "augh": 1771,
      "van": 1772,
      "thom": 1773,
      "hin": 1774,
      "tian</w>": 1775,
      "signed</w>": 1776,
      "census</w>": 1777,
      "ba</w>": 1778,
      "lake</w>": 1779,
      "mur": 1780,
      "popular</w>": 1781,
      "bul": 1782,
      "gram</w>": 1783,
      "research</w>": 1784,
      "science</w>": 1785,
      "tour": 1786,
      "ied</w>": 1787,
      "created</w>": 1788,
      "hall</w>": 1789,
      "society</w>": 1790,
      "depart": 1791,
      "web": 1792,
      "commis": 1793,
      "northern</w>": 1794,
      "association</w>": 1795,
      "swe": 1796,
      "mac": 1797,
      "1998</w>": 1798,
      "men": 1799,
      "ability</w>": 1800,
      "star</w>": 1801,
      "win</w>": 1802,
      "partic": 1803,
      "european</w>": 1804,
      "vidu": 1805,
      "ards</w>": 1806,
      "railway</w>": 1807,
      "suppor": 1808,
      "ls</w>": 1809,
      "influ": 1810,
      "individu": 1811,
      "victor": 1812,
      "uk</w>": 1813,
      "jer": 1814,
      "super": 1815,
      "france</w>": 1816,
      "case</w>": 1817,
      "toge": 1818,
      "married</w>": 1819,
      "kin": 1820,
      "xim": 1821,
      "together</w>": 1822,
      "resid": 1823,
      "concer": 1824,
      "29</w>": 1825,
      "claim": 1826,
      "tal": 1827,
      "muse": 1828,
      "students</w>": 1829,
      "ol</w>": 1830,
      "chris": 1831,
      "equ": 1832,
      "canadian</w>": 1833,
      "craft</w>": 1834,
      "wro": 1835,
      "forman": 1836,
      "admini": 1837,
      "social</w>": 1838,
      "came</w>": 1839,
      "conta": 1840,
      "sun": 1841,
      "vers</w>": 1842,
      "services</w>": 1843,
      "date</w>": 1844,
      "next</w>": 1845,
      "face</w>": 1846,
      "2016</w>": 1847,
      "title</w>": 1848,
      "ational</w>": 1849,
      "space</w>": 1850,
      "termin": 1851,
      "dle</w>": 1852,
      "aren": 1853,
      "ency</w>": 1854,
      "sym": 1855,
      "went</w>": 1856,
      "type</w>": 1857,
      "body</w>": 1858,
      "david</w>": 1859,
      "chr": 1860,
      "continued</w>": 1861,
      "inten": 1862,
      "run</w>": 1863,
      "1st</w>": 1864,
      "cup</w>": 1865,
      "ched</w>": 1866,
      "via</w>": 1867,
      "battle</w>": 1868,
      "opened</w>": 1869,
      "cell": 1870,
      "young</w>": 1871,
      "tural</w>": 1872,
      "wrote</w>": 1873,
      "performan": 1874,
      "design</w>": 1875,
      "commit": 1876,
      "few</w>": 1877,
      "scot": 1878,
      "tures</w>": 1879,
      "long": 1880,
      "mit": 1881,
      "ide": 1882,
      "blo": 1883,
      "ges</w>": 1884,
      "considered</w>": 1885,
      "births</w>": 1886,
      "sters</w>": 1887,
      "species</w>": 1888,
      "term</w>": 1889,
      "ken": 1890,
      "him": 1891,
      "liter": 1892,
      "native</w>": 1893,
      "schools</w>": 1894,
      "religi": 1895,
      "japanese</w>": 1896,
      "minister</w>": 1897,
      "sor": 1898,
      "special</w>": 1899,
      "similar</w>": 1900,
      "ago</w>": 1901,
      "half</w>": 1902,
      "character</w>": 1903,
      "ought</w>": 1904,
      "level</w>": 1905,
      "iled</w>": 1906,
      "full</w>": 1907,
      "munici": 1908,
      "guit": 1909,
      "open</w>": 1910,
      "lost</w>": 1911,
      "1996</w>": 1912,
      "reco": 1913,
      "secre": 1914,
      "ki": 1915,
      "shire</w>": 1916,
      "dam": 1917,
      "entary</w>": 1918,
      "attemp": 1919,
      "ific</w>": 1920,
      "pain": 1921,
      "free</w>": 1922,
      "kingdom</w>": 1923,
      "ross</w>": 1924,
      "ang</w>": 1925,
      "pap": 1926,
      "constitu": 1927,
      "rul": 1928,
      "cast</w>": 1929,
      "ult</w>": 1930,
      "business</w>": 1931,
      "ribu": 1932,
      "books</w>": 1933,
      "ecu": 1934,
      "southern</w>": 1935,
      "areas</w>": 1936,
      "program</w>": 1937,
      "transpor": 1938,
      "phys": 1939,
      "songs</w>": 1940,
      "mel": 1941,
      "mark</w>": 1942,
      "abo": 1943,
      "31</w>": 1944,
      "requi": 1945,
      "whe": 1946,
      "relati": 1947,
      "voc": 1948,
      "mov": 1949,
      "priv": 1950,
      "ues</w>": 1951,
      "engine": 1952,
      "making</w>": 1953,
      "ped</w>": 1954,
      "post</w>": 1955,
      "2017</w>": 1956,
      "project</w>": 1957,
      "developed</w>": 1958,
      "stra": 1959,
      "liber": 1960,
      "dest": 1961,
      "ached</w>": 1962,
      "let</w>": 1963,
      "democ": 1964,
      "announced</w>": 1965,
      "20th</w>": 1966,
      "appoin": 1967,
      "ny</w>": 1968,
      "ow</w>": 1969,
      "ential</w>": 1970,
      "appeared</w>": 1971,
      "pt</w>": 1972,
      "spo": 1973,
      "tun": 1974,
      "little</w>": 1975,
      "groups</w>": 1976,
      "establish": 1977,
      "ox": 1978,
      "ured</w>": 1979,
      "wee": 1980,
      "gy</w>": 1981,
      "ur</w>": 1982,
      "asi": 1983,
      "emplo": 1984,
      "syst": 1985,
      "ature</w>": 1986,
      "kers</w>": 1987,
      "1995</w>": 1988,
      "househol": 1989,
      "australian</w>": 1990,
      "car</w>": 1991,
      "pit": 1992,
      "65</w>": 1993,
      "compu": 1994,
      "route</w>": 1995,
      "speci": 1996,
      "2018</w>": 1997,
      "gn": 1998,
      "may": 1999,
      "thol": 2000,
      "japan</w>": 2001,
      "chin": 2002,
      "how</w>": 2003,
      "au</w>": 2004,
      "nific": 2005,
      "occu": 2006,
      "avail": 2007,
      "love</w>": 2008,
      "department</w>": 2009,
      "race</w>": 2010,
      "agre": 2011,
      "once</w>": 2012,
      "cent</w>": 2013,
      "professi": 2014,
      "sea</w>": 2015,
      "fle": 2016,
      "media</w>": 2017,
      "ented</w>": 2018,
      "important</w>": 2019,
      "bil": 2020,
      "administr": 2021,
      "famil": 2022,
      "human</w>": 2023,
      "di</w>": 2024,
      "size</w>": 2025,
      "class": 2026,
      "aul</w>": 2027,
      "usually</w>": 2028,
      "appear": 2029,
      "185": 2030,
      "india</w>": 2031,
      "heav": 2032,
      "forces</w>": 2033,
      "wash": 2034,
      "robert</w>": 2035,
      "2019</w>": 2036,
      "director</w>": 2037,
      "ably</w>": 2038,
      "rican</w>": 2039,
      "kan": 2040,
      "germany</w>": 2041,
      "construction</w>": 2042,
      "forms</w>": 2043,
      "back": 2044,
      "1994</w>": 2045,
      "sa</w>": 2046,
      "kar": 2047,
      "writer</w>": 2048,
      "information</w>": 2049,
      "hab": 2050,
      "prob": 2051,
      "fire</w>": 2052,
      "sain": 2053,
      "event": 2054,
      "identi": 2055,
      "ications</w>": 2056,
      "syn": 2057,
      "electr": 2058,
      "defe": 2059,
      "mater": 2060,
      "defin": 2061,
      "ological</w>": 2062,
      "ga</w>": 2063,
      "suff": 2064,
      "never</w>": 2065,
      "ino</w>": 2066,
      "tit": 2067,
      "ets</w>": 2068,
      "families</w>": 2069,
      "ops</w>": 2070,
      "ours</w>": 2071,
      "lower</w>": 2072,
      "liam": 2073,
      "sen</w>": 2074,
      "burg</w>": 2075,
      "founded</w>": 2076,
      "gir": 2077,
      "separ": 2078,
      "coming</w>": 2079,
      "aircraft</w>": 2080,
      "pra": 2081,
      "europe</w>": 2082,
      "stone</w>": 2083,
      "others</w>": 2084,
      "1992</w>": 2085,
      "recorded</w>": 2086,
      "ok": 2087,
      "parliam": 2088,
      "pec": 2089,
      "2020</w>": 2090,
      "exi": 2091,
      "charles</w>": 2092,
      "lines</w>": 2093,
      "museum</w>": 2094,
      "ication</w>": 2095,
      "promo": 2096,
      "theat": 2097,
      "dea": 2098,
      "laun": 2099,
      "championship</w>": 2100,
      "gradu": 2101,
      "release</w>": 2102,
      "returned</w>": 2103,
      "events</w>": 2104,
      "signific": 2105,
      "originally</w>": 2106,
      "alli": 2107,
      "vels</w>": 2108,
      "eth": 2109,
      "ators</w>": 2110,
      "km</w>": 2111,
      "result</w>": 2112,
      "spi": 2113,
      "started</w>": 2114,
      "current</w>": 2115,
      "los</w>": 2116,
      "ners</w>": 2117,
      "pac": 2118,
      "fort</w>": 2119,
      "ot</w>": 2120,
      "carri": 2121,
      "olym": 2122,
      "ty": 2123,
      "mex": 2124,
      "ior</w>": 2125,
      "civil</w>": 2126,
      "summer</w>": 2127,
      "available</w>": 2128,
      "wife</w>": 2129,
      "good</w>": 2130,
      "eastern</w>": 2131,
      "far": 2132,
      "income</w>": 2133,
      "van</w>": 2134,
      "african</w>": 2135,
      "sus": 2136,
      "described</w>": 2137,
      "lin</w>": 2138,
      "colum": 2139,
      "ban</w>": 2140,
      "cle</w>": 2141,
      "paul</w>": 2142,
      "cathol": 2143,
      "china</w>": 2144,
      "network</w>": 2145,
      "covered</w>": 2146,
      "daugh": 2147,
      "largest</w>": 2148,
      "himself</w>": 2149,
      "revol": 2150,
      "upon</w>": 2151,
      "fication</w>": 2152,
      "color</w>": 2153,
      "ff</w>": 2154,
      "ram": 2155,
      "anal": 2156,
      "magaz": 2157,
      "ills</w>": 2158,
      "ball": 2159,
      "micha": 2160,
      "pped</w>": 2161,
      "indian</w>": 2162,
      "1993</w>": 2163,
      "ah": 2164,
      "sla": 2165,
      "em</w>": 2166,
      "fig": 2167,
      "stead</w>": 2168,
      "multi": 2169,
      "sports</w>": 2170,
      "ya</w>": 2171,
      "news</w>": 2172,
      "ption</w>": 2173,
      "acy</w>": 2174,
      "put</w>": 2175,
      "wide</w>": 2176,
      "mother</w>": 2177,
      "metho": 2178,
      "deaths</w>": 2179,
      "ene</w>": 2180,
      "hill</w>": 2181,
      "lead</w>": 2182,
      "commer": 2183,
      "centre</w>": 2184,
      "sources</w>": 2185,
      "chic": 2186,
      "notes</w>": 2187,
      "thomas</w>": 2188,
      "equi": 2189,
      "green</w>": 2190,
      "ash</w>": 2191,
      "1987</w>": 2192,
      "1990</w>": 2193,
      "hold</w>": 2194,
      "roman</w>": 2195,
      "cer</w>": 2196,
      "comman": 2197,
      "police</w>": 2198,
      "campa": 2199,
      "libr": 2200,
      "angel": 2201,
      "ose</w>": 2202,
      "nar": 2203,
      "competi": 2204,
      "bat": 2205,
      "albums</w>": 2206,
      "ast": 2207,
      "plat": 2208,
      "model</w>": 2209,
      "ended</w>": 2210,
      "roman": 2211,
      "viol": 2212,
      "health</w>": 2213,
      "pper</w>": 2214,
      "politici": 2215,
      "manu": 2216,
      "places</w>": 2217,
      "colon": 2218,
      "stage</w>": 2219,
      "1991</w>": 2220,
      "range</w>": 2221,
      "execu": 2222,
      "rights</w>": 2223,
      "yed</w>": 2224,
      "45</w>": 2225,
      "systems</w>": 2226,
      "person": 2227,
      "paren": 2228,
      "working</w>": 2229,
      "eved</w>": 2230,
      "addition</w>": 2231,
      "proper": 2232,
      "does</w>": 2233,
      "website</w>": 2234,
      "congre": 2235,
      "mad": 2236,
      "soph": 2237,
      "female</w>": 2238,
      "bly</w>": 2239,
      "franc": 2240,
      "front</w>": 2241,
      "lam": 2242,
      "word</w>": 2243,
      "im</w>": 2244,
      "ditions</w>": 2245,
      "through": 2246,
      "washington</w>": 2247,
      "bis": 2248,
      "span": 2249,
      "ni</w>": 2250,
      "culture</w>": 2251,
      "michael</w>": 2252,
      "away</w>": 2253,
      "tries</w>": 2254,
      "sh</w>": 2255,
      "should</w>": 2256,
      "round</w>": 2257,
      "ination</w>": 2258,
      "section</w>": 2259,
      "60</w>": 2260,
      "anti": 2261,
      "ky</w>": 2262,
      "cast": 2263,
      "rest": 2264,
      "professional</w>": 2265,
      "polic": 2266,
      "episode</w>": 2267,
      "seen</w>": 2268,
      "gs</w>": 2269,
      "tour</w>": 2270,
      "glo": 2271,
      "bon": 2272,
      "mas": 2273,
      "ire": 2274,
      "olymp": 2275,
      "writers</w>": 2276,
      "inst": 2277,
      "desp": 2278,
      "throughout</w>": 2279,
      "docum": 2280,
      "thus</w>": 2281,
      "ligh": 2282,
      "woo": 2283,
      "ku": 2284,
      "va</w>": 2285,
      "ping</w>": 2286,
      "playing</w>": 2287,
      "companies</w>": 2288,
      "chief</w>": 2289,
      "row</w>": 2290,
      "onic</w>": 2291,
      "aged</w>": 2292,
      "grand</w>": 2293,
      "serve</w>": 2294,
      "taken</w>": 2295,
      "square</w>": 2296,
      "awards</w>": 2297,
      "arri": 2298,
      "return</w>": 2299,
      "market</w>": 2300,
      "alter": 2301,
      "scre": 2302,
      "democr": 2303,
      "outh</w>": 2304,
      "ever</w>": 2305,
      "nes": 2306,
      "units</w>": 2307,
      "must</w>": 2308,
      "seven</w>": 2309,
      "across</w>": 2310,
      "by": 2311,
      "instead</w>": 2312,
      "ective</w>": 2313,
      "ai</w>": 2314,
      "ester</w>": 2315,
      "tee</w>": 2316,
      "middle</w>": 2317,
      "bour": 2318,
      "performance</w>": 2319,
      "introduced</w>": 2320,
      "despite</w>": 2321,
      "achi": 2322,
      "eventually</w>": 2323,
      "eds</w>": 2324,
      "berg</w>": 2325,
      "joined</w>": 2326,
      "sey</w>": 2327,
      "ishing</w>": 2328,
      "expl": 2329,
      "contr": 2330,
      "pal</w>": 2331,
      "ano</w>": 2332,
      "festi": 2333,
      "sity</w>": 2334,
      "sure</w>": 2335,
      "here</w>": 2336,
      "law": 2337,
      "territ": 2338,
      "text</w>": 2339,
      "1989</w>": 2340,
      "ply</w>": 2341,
      "process</w>": 2342,
      "independent</w>": 2343,
      "wer</w>": 2344,
      "ron</w>": 2345,
      "dor": 2346,
      "regul": 2347,
      "ership</w>": 2348,
      "either</w>": 2349,
      "fif": 2350,
      "sold</w>": 2351,
      "earli": 2352,
      "inte": 2353,
      "archit": 2354,
      "partici": 2355,
      "tial</w>": 2356,
      "worked</w>": 2357,
      "movement</w>": 2358,
      "bia</w>": 2359,
      "possible</w>": 2360,
      "net</w>": 2361,
      "sugg": 2362,
      "iting</w>": 2363,
      "1988</w>": 2364,
      "era</w>": 2365,
      "designed</w>": 2366,
      "parts</w>": 2367,
      "study</w>": 2368,
      "related</w>": 2369,
      "bay</w>": 2370,
      "ki</w>": 2371,
      "federal</w>": 2372,
      "ole</w>": 2373,
      "reti": 2374,
      "sar": 2375,
      "active</w>": 2376,
      "experi": 2377,
      "enter": 2378,
      "structure</w>": 2379,
      "ca</w>": 2380,
      "gold</w>": 2381,
      "activ": 2382,
      "cept</w>": 2383,
      "kh": 2384,
      "older</w>": 2385,
      "chinese</w>": 2386,
      "saw</w>": 2387,
      "own": 2388,
      "12": 2389,
      "ends</w>": 2390,
      "sent</w>": 2391,
      "henry</w>": 2392,
      "envir": 2393,
      "arts</w>": 2394,
      "bol": 2395,
      "stations</w>": 2396,
      "wed</w>": 2397,
      "standard</w>": 2398,
      "bel</w>": 2399,
      "features</w>": 2400,
      "gin": 2401,
      "conduc": 2402,
      "sat": 2403,
      "stoc": 2404,
      "jus": 2405,
      "tting</w>": 2406,
      "jects</w>": 2407,
      "vent": 2408,
      "ket": 2409,
      "scri": 2410,
      "expan": 2411,
      "flor": 2412,
      "ico</w>": 2413,
      "distri": 2414,
      "median</w>": 2415,
      "base</w>": 2416,
      "spanish</w>": 2417,
      "fav": 2418,
      "dd": 2419,
      "cities</w>": 2420,
      "nec": 2421,
      "environ": 2422,
      "points</w>": 2423,
      "mean": 2424,
      "ald</w>": 2425,
      "distribu": 2426,
      "tained</w>": 2427,
      "dig": 2428,
      "followed</w>": 2429,
      "ide</w>": 2430,
      "real</w>": 2431,
      "sometimes</w>": 2432,
      "bac": 2433,
      "training</w>": 2434,
      "indic": 2435,
      "private</w>": 2436,
      "184": 2437,
      "subsequ": 2438,
      "rica</w>": 2439,
      "down": 2440,
      "above</w>": 2441,
      "ases</w>": 2442,
      "cross</w>": 2443,
      "rather</w>": 2444,
      "contribu": 2445,
      "dol": 2446,
      "35</w>": 2447,
      "russian</w>": 2448,
      "photo": 2449,
      "today</w>": 2450,
      "inning</w>": 2451,
      "data</w>": 2452,
      "characters</w>": 2453,
      "peter</w>": 2454,
      "italian</w>": 2455,
      "anci": 2456,
      "defen": 2457,
      "op</w>": 2458,
      "pil": 2459,
      "personal</w>": 2460,
      "os": 2461,
      "eded</w>": 2462,
      "includes</w>": 2463,
      "four": 2464,
      "bom": 2465,
      "comes</w>": 2466,
      "alum": 2467,
      "brit": 2468,
      "cli": 2469,
      "32</w>": 2470,
      "hosp": 2471,
      "1986</w>": 2472,
      "lock</w>": 2473,
      "tric</w>": 2474,
      "frequ": 2475,
      "completed</w>": 2476,
      "rol": 2477,
      "match</w>": 2478,
      "stant</w>": 2479,
      "tain": 2480,
      "blue</w>": 2481,
      "gue</w>": 2482,
      "christian</w>": 2483,
      "hop</w>": 2484,
      "mach": 2485,
      "daughter</w>": 2486,
      "richard</w>": 2487,
      "empire</w>": 2488,
      "foc": 2489,
      "nu": 2490,
      "musical</w>": 2491,
      "meas": 2492,
      "med</w>": 2493,
      "pon": 2494,
      "airport</w>": 2495,
      "movi": 2496,
      "households</w>": 2497,
      "gal": 2498,
      "hus": 2499,
      "conserv": 2500,
      "mig": 2501,
      "months</w>": 2502,
      "catholic</w>": 2503,
      "jac": 2504,
      "appointed</w>": 2505,
      "respec": 2506,
      "republic</w>": 2507,
      "chri": 2508,
      "treat": 2509,
      "bank</w>": 2510,
      "magazine</w>": 2511,
      "phili": 2512,
      "ained</w>": 2513,
      "princi": 2514,
      "ey": 2515,
      "roun": 2516,
      "degre": 2517,
      "technology</w>": 2518,
      "operation</w>": 2519,
      "ided</w>": 2520,
      "wish</w>": 2521,
      "nation</w>": 2522,
      "replaced</w>": 2523,
      "rest</w>": 2524,
      "read</w>": 2525,
      "person</w>": 2526,
      "syl": 2527,
      "figh": 2528,
      "leading</w>": 2529,
      "count</w>": 2530,
      "gun": 2531,
      "dance</w>": 2532,
      "novel</w>": 2533,
      "nomin": 2534,
      "close</w>": 2535,
      "ireland</w>": 2536,
      "buildings</w>": 2537,
      "academy</w>": 2538,
      "smith</w>": 2539,
      "gam": 2540,
      "ech</w>": 2541,
      "ergy</w>": 2542,
      "cros": 2543,
      "duce</w>": 2544,
      "nic": 2545,
      "natural</w>": 2546,
      "saf": 2547,
      "actor</w>": 2548,
      "viet</w>": 2549,
      "enced</w>": 2550,
      "tru": 2551,
      "hand": 2552,
      "ib": 2553,
      "uation</w>": 2554,
      "emer": 2555,
      "survi": 2556,
      "evi": 2557,
      "there": 2558,
      "verse</w>": 2559,
      "tter</w>": 2560,
      "north": 2561,
      "fully</w>": 2562,
      "transl": 2563,
      "prote": 2564,
      "alls</w>": 2565,
      "mid</w>": 2566,
      "hic": 2567,
      "remained</w>": 2568,
      "cus": 2569,
      "committee</w>": 2570,
      "ida</w>": 2571,
      "saint</w>": 2572,
      "big": 2573,
      "found": 2574,
      "reading</w>": 2575,
      "channel</w>": 2576,
      "ilities</w>": 2577,
      "bb": 2578,
      "leav": 2579,
      "performed</w>": 2580,
      "lear": 2581,
      "killed</w>": 2582,
      "mission</w>": 2583,
      "theatre</w>": 2584,
      "atory</w>": 2585,
      "mir": 2586,
      "chem": 2587,
      "scienti": 2588,
      "pun": 2589,
      "valley</w>": 2590,
      "institute</w>": 2591,
      "actre": 2592,
      "brother</w>": 2593,
      "ially</w>": 2594,
      "countries</w>": 2595,
      "io</w>": 2596,
      "studies</w>": 2597,
      "below</w>": 2598,
      "gave</w>": 2599,
      "ested</w>": 2600,
      "essor</w>": 2601,
      "ads</w>": 2602,
      "1980</w>": 2603,
      "coast</w>": 2604,
      "land": 2605,
      "leader</w>": 2606,
      "ece</w>": 2607,
      "offici": 2608,
      "big</w>": 2609,
      "soviet</w>": 2610,
      "tice</w>": 2611,
      "tary</w>": 2612,
      "africa</w>": 2613,
      "manufac": 2614,
      "1985</w>": 2615,
      "foreign</w>": 2616,
      "ts": 2617,
      "2021</w>": 2618,
      "ino": 2619,
      "mix": 2620,
      "ti</w>": 2621,
      "exper": 2622,
      "economic</w>": 2623,
      "least</w>": 2624,
      "library</w>": 2625,
      "ories</w>": 2626,
      "accep": 2627,
      "80</w>": 2628,
      "wel": 2629,
      "1984</w>": 2630,
      "province</w>": 2631,
      "lad": 2632,
      "cop": 2633,
      "arg": 2634,
      "atis": 2635,
      "writing</w>": 2636,
      "domin": 2637,
      "son": 2638,
      "tual</w>": 2639,
      "premi": 2640,
      "requ": 2641,
      "tou": 2642,
      "wan": 2643,
      "higher</w>": 2644,
      "gri": 2645,
      "aching</w>": 2646,
      "campaign</w>": 2647,
      "met": 2648,
      "navy</w>": 2649,
      "ac</w>": 2650,
      "brou": 2651,
      "ion</w>": 2652,
      "governor</w>": 2653,
      "texas</w>": 2654,
      "ital": 2655,
      "tch</w>": 2656,
      "john": 2657,
      "notable</w>": 2658,
      "nation": 2659,
      "singer</w>": 2660,
      "attack</w>": 2661,
      "featured</w>": 2662,
      "directed</w>": 2663,
      "1983</w>": 2664,
      "primary</w>": 2665,
      "assem": 2666,
      "orial</w>": 2667,
      "artists</w>": 2668,
      "shows</w>": 2669,
      "strong</w>": 2670,
      "ession</w>": 2671,
      "com</w>": 2672,
      "limited</w>": 2673,
      "successful</w>": 2674,
      "gor": 2675,
      "provided</w>": 2676,
      "ko</w>": 2677,
      "trade</w>": 2678,
      "generally</w>": 2679,
      "tom</w>": 2680,
      "reduc": 2681,
      "anth": 2682,
      "dru": 2683,
      "neigh": 2684,
      "erous</w>": 2685,
      "hand</w>": 2686,
      "osoph": 2687,
      "yu": 2688,
      "ists</w>": 2689,
      "cles</w>": 2690,
      "spir": 2691,
      "clim": 2692,
      "lic": 2693,
      "event</w>": 2694,
      "industry</w>": 2695,
      "eight</w>": 2696,
      "industri": 2697,
      "standing</w>": 2698,
      "help</w>": 2699,
      "od": 2700,
      "sky</w>": 2701,
      "slo": 2702,
      "historical</w>": 2703,
      "avi": 2704,
      "hood</w>": 2705,
      "almost</w>": 2706,
      "soon</w>": 2707,
      "1979</w>": 2708,
      "engine</w>": 2709,
      "parliament</w>": 2710,
      "ests</w>": 2711,
      "bill</w>": 2712,
      "source</w>": 2713,
      "theory</w>": 2714,
      "jose": 2715,
      "mass": 2716,
      "added</w>": 2717,
      "1982</w>": 2718,
      "legal</w>": 2719,
      "lord</w>": 2720,
      "ton": 2721,
      "test</w>": 2722,
      "vehic": 2723,
      "wit": 2724,
      "mol": 2725,
      "bus</w>": 2726,
      "anti</w>": 2727,
      "move</w>": 2728,
      "food</w>": 2729,
      "espec": 2730,
      "dun": 2731,
      "resi": 2732,
      "chap": 2733,
      "settl": 2734,
      "ray</w>": 2735,
      "far</w>": 2736,
      "ck</w>": 2737,
      "outside</w>": 2738,
      "dary</w>": 2739,
      "too</w>": 2740,
      "64</w>": 2741,
      "staf": 2742,
      "chicago</w>": 2743,
      "ference</w>": 2744,
      "collection</w>": 2745,
      "thre": 2746,
      "festival</w>": 2747,
      "especially</w>": 2748,
      "goo": 2749,
      "airs</w>": 2750,
      "changed</w>": 2751,
      "future</w>": 2752,
      "operations</w>": 2753,
      "philosoph": 2754,
      "stan</w>": 2755,
      "elling</w>": 2756,
      "regim": 2757,
      "closed</w>": 2758,
      "edition</w>": 2759,
      "33</w>": 2760,
      "success</w>": 2761,
      "pus</w>": 2762,
      "1981</w>": 2763,
      "medical</w>": 2764,
      "schol": 2765,
      "prime</w>": 2766,
      "greek</w>": 2767,
      "cing</w>": 2768,
      "cover</w>": 2769,
      "management</w>": 2770,
      "studio</w>": 2771,
      "impl": 2772,
      "eve</w>": 2773,
      "capital</w>": 2774,
      "aland</w>": 2775,
      "whose</w>": 2776,
      "ils</w>": 2777,
      "beginning</w>": 2778,
      "cape</w>": 2779,
      "leng": 2780,
      "traditional</w>": 2781,
      "ready</w>": 2782,
      "location</w>": 2783,
      "19th</w>": 2784,
      "alex": 2785,
      "tively</w>": 2786,
      "approxim": 2787,
      "organization</w>": 2788,
      "wid": 2789,
      "guitar</w>": 2790,
      "author</w>": 2791,
      "aries</w>": 2792,
      "expres": 2793,
      "44</w>": 2794,
      "she": 2795,
      "asons</w>": 2796,
      "teams</w>": 2797,
      "pa</w>": 2798,
      "minu": 2799,
      "ink</w>": 2800,
      "males</w>": 2801,
      "sex": 2802,
      "ha</w>": 2803,
      "bility</w>": 2804,
      "paris</w>": 2805,
      "70</w>": 2806,
      "90</w>": 2807,
      "psy": 2808,
      "base": 2809,
      "bin": 2810,
      "woman</w>": 2811,
      "die</w>": 2812,
      "mental</w>": 2813,
      "particip": 2814,
      "atic": 2815,
      "historic</w>": 2816,
      "reported</w>": 2817,
      "1970</w>": 2818,
      "itself</w>": 2819,
      "itor</w>": 2820,
      "queen</w>": 2821,
      "energy</w>": 2822,
      "cru": 2823,
      "estim": 2824,
      "master</w>": 2825,
      "volum": 2826,
      "claimed</w>": 2827,
      "legis": 2828,
      "lea": 2829,
      "500</w>": 2830,
      "1978</w>": 2831,
      "irish</w>": 2832,
      "jewish</w>": 2833,
      "child</w>": 2834,
      "1974</w>": 2835,
      "1972</w>": 2836,
      "baseball</w>": 2837,
      "exp": 2838,
      "certain</w>": 2839,
      "eas": 2840,
      "vice</w>": 2841,
      "complete</w>": 2842,
      "tured</w>": 2843,
      "cele": 2844,
      "ker": 2845,
      "sof": 2846,
      "cred": 2847,
      "ita</w>": 2848,
      "gen</w>": 2849,
      "fall</w>": 2850,
      "sound</w>": 2851,
      "athle": 2852,
      "unit</w>": 2853,
      "thy</w>": 2854,
      "met</w>": 2855,
      "atlan": 2856,
      "going</w>": 2857,
      "alumni</w>": 2858,
      "1975</w>": 2859,
      "occur": 2860,
      "compos": 2861,
      "nature</w>": 2862,
      "ro</w>": 2863,
      "finan": 2864,
      "oms</w>": 2865,
      "log": 2866,
      "females</w>": 2867,
      "views</w>": 2868,
      "post": 2869,
      "nd</w>": 2870,
      "stated</w>": 2871,
      "1976</w>": 2872,
      "abor": 2873,
      "strum": 2874,
      "ky": 2875,
      "ean</w>": 2876,
      "ax": 2877,
      "previous</w>": 2878,
      "rate</w>": 2879,
      "oli": 2880,
      "brown</w>": 2881,
      "significant</w>": 2882,
      "zealand</w>": 2883,
      "hop": 2884,
      "bun": 2885,
      "room</w>": 2886,
      "owned</w>": 2887,
      "additional</w>": 2888,
      "currently</w>": 2889,
      "attac": 2890,
      "36</w>": 2891,
      "township</w>": 2892,
      "involved</w>": 2893,
      "cric": 2894,
      "names</w>": 2895,
      "ever": 2896,
      "istic</w>": 2897,
      "religious</w>": 2898,
      "establishments</w>": 2899,
      "esses</w>": 2900,
      "les": 2901,
      "impro": 2902,
      "fourth</w>": 2903,
      "stance</w>": 2904,
      "recogn": 2905,
      "ecture</w>": 2906,
      "instrum": 2907,
      "practi": 2908,
      "castle</w>": 2909,
      "dr</w>": 2910,
      "bow": 2911,
      "candi": 2912,
      "means</w>": 2913,
      "ancient</w>": 2914,
      "1977</w>": 2915,
      "sex</w>": 2916,
      "bes</w>": 2917,
      "inj": 2918,
      "provide</w>": 2919,
      "1973</w>": 2920,
      "ingu": 2921,
      "yer</w>": 2922,
      "density</w>": 2923,
      "ran</w>": 2924,
      "deli": 2925,
      "interest</w>": 2926,
      "islands</w>": 2927,
      "course</w>": 2928,
      "computer</w>": 2929,
      "secur": 2930,
      "iii</w>": 2931,
      "changes</w>": 2932,
      "reached</w>": 2933,
      "gers</w>": 2934,
      "ums</w>": 2935,
      "du</w>": 2936,
      "gall": 2937,
      "len": 2938,
      "37</w>": 2939,
      "free": 2940,
      "secon": 2941,
      "lo</w>": 2942,
      "alism</w>": 2943,
      "fiction</w>": 2944,
      "norm": 2945,
      "brought</w>": 2946,
      "bal</w>": 2947,
      "ricul": 2948,
      "issue</w>": 2949,
      "ski</w>": 2950,
      "allowed</w>": 2951,
      "1968</w>": 2952,
      "ane</w>": 2953,
      "lived</w>": 2954,
      "earth</w>": 2955,
      "sir</w>": 2956,
      "1971</w>": 2957,
      "onto</w>": 2958,
      "awar": 2959,
      "purch": 2960,
      "mexico</w>": 2961,
      "hit</w>": 2962,
      "sac": 2963,
      "commercial</w>": 2964,
      "stly</w>": 2965,
      "ae</w>": 2966,
      "listed</w>": 2967,
      "alized</w>": 2968,
      "38</w>": 2969,
      "gation</w>": 2970,
      "hind</w>": 2971,
      "zz": 2972,
      "ry": 2973,
      "atives</w>": 2974,
      "virgin": 2975,
      "quali": 2976,
      "adap": 2977,
      "prince</w>": 2978,
      "gate</w>": 2979,
      "previously</w>": 2980,
      "alists</w>": 2981,
      "south": 2982,
      "tery</w>": 2983,
      "activi": 2984,
      "carol": 2985,
      "regular</w>": 2986,
      "coach</w>": 2987,
      "shar": 2988,
      "mill": 2989,
      "incorpor": 2990,
      "ques": 2991,
      "ming</w>": 2992,
      "words</w>": 2993,
      "seat</w>": 2994,
      "1969</w>": 2995,
      "ot": 2996,
      "associated</w>": 2997,
      "ells</w>": 2998,
      "bishop</w>": 2999,
      "amed</w>": 3000,
      "hur": 3001,
      "34</w>": 3002,
      "lie</w>": 3003,
      "required</w>": 3004,
      "200</w>": 3005,
      "explo": 3006,
      "regar": 3007,
      "ious</w>": 3008,
      "fiel": 3009,
      "kel": 3010,
      "soldi": 3011,
      "ades</w>": 3012,
      "highway</w>": 3013,
      "rer</w>": 3014,
      "kets</w>": 3015,
      "speed</w>": 3016,
      "artic": 3017,
      "lati": 3018,
      "tel</w>": 3019,
      "kore": 3020,
      "martin</w>": 3021,
      "mechan": 3022,
      "winning</w>": 3023,
      "ex</w>": 3024,
      "artist</w>": 3025,
      "divi": 3026,
      "deri": 3027,
      "jack": 3028,
      "hi</w>": 3029,
      "versi": 3030,
      "porary</w>": 3031,
      "2nd</w>": 3032,
      "terms</w>": 3033,
      "student</w>": 3034,
      "ona</w>": 3035,
      "boun": 3036,
      "plan</w>": 3037,
      "start</w>": 3038,
      "tiz": 3039,
      "week</w>": 3040,
      "adop": 3041,
      "investi": 3042,
      "prior</w>": 3043,
      "policy</w>": 3044,
      "louis</w>": 3045,
      "journ": 3046,
      "taking</w>": 3047,
      "races</w>": 3048,
      "earlier</w>": 3049,
      "wa</w>": 3050,
      "behind</w>": 3051,
      "ut": 3052,
      "penn": 3053,
      "cav": 3054,
      "republ": 3055,
      "hospital</w>": 3056,
      "ner": 3057,
      "isra": 3058,
      "1967</w>": 3059,
      "highest</w>": 3060,
      "pose</w>": 3061,
      "god</w>": 3062,
      "virginia</w>": 3063,
      "celebr": 3064,
      "wr": 3065,
      "dan</w>": 3066,
      "sl": 3067,
      "sav": 3068,
      "int</w>": 3069,
      "adel": 3070,
      "cab": 3071,
      "yl": 3072,
      "decided</w>": 3073,
      "sses</w>": 3074,
      "famous</w>": 3075,
      "italy</w>": 3076,
      "results</w>": 3077,
      "access</w>": 3078,
      "ri</w>": 3079,
      "tains</w>": 3080,
      "amoun": 3081,
      "temper": 3082,
      "initially</w>": 3083,
      "staff</w>": 3084,
      "officer</w>": 3085,
      "aying</w>": 3086,
      "vocals</w>": 3087,
      "ont": 3088,
      "pality</w>": 3089,
      "democratic</w>": 3090,
      "clar": 3091,
      "forced</w>": 3092,
      "strat": 3093,
      "money</w>": 3094,
      "runs</w>": 3095,
      "command</w>": 3096,
      "apol": 3097,
      "mountain</w>": 3098,
      "andre": 3099,
      "vention</w>": 3100,
      "human": 3101,
      "bit</w>": 3102,
      "isions</w>": 3103,
      "pacific</w>": 3104,
      "stadi": 3105,
      "particul": 3106,
      "annual</w>": 3107,
      "unities</w>": 3108,
      "politician</w>": 3109,
      "dly</w>": 3110,
      "ching</w>": 3111,
      "manager</w>": 3112,
      "florida</w>": 3113,
      "newsp": 3114,
      "increased</w>": 3115,
      "graphy</w>": 3116,
      "cher</w>": 3117,
      "angeles</w>": 3118,
      "running</w>": 3119,
      "security</w>": 3120,
      "report</w>": 3121,
      "nigh": 3122,
      "friend</w>": 3123,
      "regional</w>": 3124,
      "ordin": 3125,
      "past</w>": 3126,
      "conver": 3127,
      "commission</w>": 3128,
      "gian</w>": 3129,
      "newspap": 3130,
      "sin": 3131,
      "1945</w>": 3132,
      "emper": 3133,
      "thought</w>": 3134,
      "audi": 3135,
      "britain</w>": 3136,
      "movie</w>": 3137,
      "awarded</w>": 3138,
      "tory</w>": 3139,
      "til": 3140,
      "ka": 3141,
      "cases</w>": 3142,
      "ario</w>": 3143,
      "180": 3144,
      "ison</w>": 3145,
      "fla": 3146,
      "producer</w>": 3147,
      "mod": 3148,
      "gun</w>": 3149,
      "code</w>": 3150,
      "individual</w>": 3151,
      "finished</w>": 3152,
      "cultural</w>": 3153,
      "shot</w>": 3154,
      "commissi": 3155,
      "aches</w>": 3156,
      "evidence</w>": 3157,
      "asia</w>": 3158,
      "ging</w>": 3159,
      "icians</w>": 3160,
      "model": 3161,
      "zer": 3162,
      "zi": 3163,
      "diffic": 3164,
      "ee</w>": 3165,
      "wol": 3166,
      "approximately</w>": 3167,
      "ron": 3168,
      "chester</w>": 3169,
      "fact</w>": 3170,
      "joseph</w>": 3171,
      "administration</w>": 3172,
      "towards</w>": 3173,
      "ances</w>": 3174,
      "opening</w>": 3175,
      "connec": 3176,
      "programm": 3177,
      "dur": 3178,
      "39</w>": 3179,
      "whom</w>": 3180,
      "caused</w>": 3181,
      "det": 3182,
      "degree</w>": 3183,
      "particularly</w>": 3184,
      "online</w>": 3185,
      "shap": 3186,
      "micro": 3187,
      "function</w>": 3188,
      "line": 3189,
      "issues</w>": 3190,
      "gas</w>": 3191,
      "pared</w>": 3192,
      "referred</w>": 3193,
      "teen</w>": 3194,
      "practice</w>": 3195,
      "neu": 3196,
      "yn": 3197,
      "individuals</w>": 3198,
      "75</w>": 3199,
      "inci": 3200,
      "loo": 3201,
      "integr": 3202,
      "sis</w>": 3203,
      "theast</w>": 3204,
      "small": 3205,
      "portra": 3206,
      "reve": 3207,
      "tiv": 3208,
      "dish</w>": 3209,
      "majority</w>": 3210,
      "thes": 3211,
      "ae": 3212,
      "aven": 3213,
      "municipality</w>": 3214,
      "borough</w>": 3215,
      "fal": 3216,
      "edward</w>": 3217,
      "husband</w>": 3218,
      "sas</w>": 3219,
      "effect</w>": 3220,
      "page</w>": 3221,
      "progre": 3222,
      "1980s</w>": 3223,
      "housing</w>": 3224,
      "aliz": 3225,
      "ck": 3226,
      "better</w>": 3227,
      "types</w>": 3228,
      "medal</w>": 3229,
      "deb": 3230,
      "debut</w>": 3231,
      "value</w>": 3232,
      "haw": 3233,
      "wall</w>": 3234,
      "ut</w>": 3235,
      "plays</w>": 3236,
      "rad": 3237,
      "nine</w>": 3238,
      "flight</w>": 3239,
      "christ": 3240,
      "cin": 3241,
      "fer</w>": 3242,
      "ado</w>": 3243,
      "bury</w>": 3244,
      "captain</w>": 3245,
      "ockey</w>": 3246,
      "nuc": 3247,
      "review</w>": 3248,
      "complex</w>": 3249,
      "character": 3250,
      "radi": 3251,
      "transport</w>": 3252,
      "know": 3253,
      "urban</w>": 3254,
      "allow</w>": 3255,
      "bell</w>": 3256,
      "tra</w>": 3257,
      "material</w>": 3258,
      "larger</w>": 3259,
      "1964</w>": 3260,
      "box</w>": 3261,
      "rd</w>": 3262,
      "operated</w>": 3263,
      "sylvan": 3264,
      "defeated</w>": 3265,
      "scotland</w>": 3266,
      "lee</w>": 3267,
      "jam": 3268,
      "spl": 3269,
      "patri": 3270,
      "ota</w>": 3271,
      "length</w>": 3272,
      "passed</w>": 3273,
      "numerous</w>": 3274,
      "ening</w>": 3275,
      "deta": 3276,
      "swit": 3277,
      "1965</w>": 3278,
      "hours</w>": 3279,
      "za</w>": 3280,
      "1966</w>": 3281,
      "tam": 3282,
      "chall": 3283,
      "scottish</w>": 3284,
      "braz": 3285,
      "autom": 3286,
      "feature</w>": 3287,
      "occas": 3288,
      "lem</w>": 3289,
      "prac": 3290,
      "biography</w>": 3291,
      "archi": 3292,
      "pre</w>": 3293,
      "uk": 3294,
      "article</w>": 3295,
      "weight</w>": 3296,
      "professor</w>": 3297,
      "launched</w>": 3298,
      "electric</w>": 3299,
      "plant</w>": 3300,
      "aled</w>": 3301,
      "appears</w>": 3302,
      "edy</w>": 3303,
      "forming</w>": 3304,
      "dates</w>": 3305,
      "train</w>": 3306,
      "stories</w>": 3307,
      "ris</w>": 3308,
      "asing</w>": 3309,
      "tol": 3310,
      "secretary</w>": 3311,
      "basket": 3312,
      "recording</w>": 3313,
      "refer</w>": 3314,
      "always</w>": 3315,
      "aker</w>": 3316,
      "rely</w>": 3317,
      "longer</w>": 3318,
      "mond</w>": 3319,
      "particular</w>": 3320,
      "lau": 3321,
      "towns</w>": 3322,
      "ero": 3323,
      "lies</w>": 3324,
      "dia</w>": 3325,
      "nations</w>": 3326,
      "influence</w>": 3327,
      "surroun": 3328,
      "forest</w>": 3329,
      "foundation</w>": 3330,
      "transi": 3331,
      "marine</w>": 3332,
      "basketball</w>": 3333,
      "poly": 3334,
      "justice</w>": 3335,
      "household</w>": 3336,
      "dition": 3337,
      "worth</w>": 3338,
      "aim</w>": 3339,
      "un</w>": 3340,
      "surface</w>": 3341,
      "soc": 3342,
      "upper</w>": 3343,
      "programs</w>": 3344,
      "tas": 3345,
      "ization</w>": 3346,
      "conference</w>": 3347,
      "sylvania</w>": 3348,
      "mile</w>": 3349,
      "actions</w>": 3350,
      "great": 3351,
      "appearance</w>": 3352,
      "financial</w>": 3353,
      "asian</w>": 3354,
      "immedi": 3355,
      "minor</w>": 3356,
      "already</w>": 3357,
      "von</w>": 3358,
      "dutch</w>": 3359,
      "destroy": 3360,
      "numbers</w>": 3361,
      "status</w>": 3362,
      "rule</w>": 3363,
      "heart</w>": 3364,
      "vin": 3365,
      "background</w>": 3366,
      "emperor</w>": 3367,
      "ians</w>": 3368,
      "tournam": 3369,
      "1970s</w>": 3370,
      "file</w>": 3371,
      "passeng": 3372,
      "engineering</w>": 3373,
      "literature</w>": 3374,
      "portu": 3375,
      "executive</w>": 3376,
      "assembly</w>": 3377,
      "contem": 3378,
      "sand": 3379,
      "citiz": 3380,
      "boy</w>": 3381,
      "beau": 3382,
      "spring</w>": 3383,
      "congress</w>": 3384,
      "turn</w>": 3385,
      "fish</w>": 3386,
      "sister</w>": 3387,
      "week": 3388,
      "bo</w>": 3389,
      "mostly</w>": 3390,
      "football": 3391,
      "stadium</w>": 3392,
      "care</w>": 3393,
      "contains</w>": 3394,
      "mann</w>": 3395,
      "1990s</w>": 3396,
      "remains</w>": 3397,
      "agricul": 3398,
      "pas": 3399,
      "ques</w>": 3400,
      "give</w>": 3401,
      "travel": 3402,
      "ji</w>": 3403,
      "non": 3404,
      "pp</w>": 3405,
      "experim": 3406,
      "ror</w>": 3407,
      "exhi": 3408,
      "west": 3409,
      "direct</w>": 3410,
      "meaning</w>": 3411,
      "languages</w>": 3412,
      "latin</w>": 3413,
      "tele": 3414,
      "1960</w>": 3415,
      "multiple</w>": 3416,
      "hard": 3417,
      "ja": 3418,
      "whit": 3419,
      "elections</w>": 3420,
      "singles</w>": 3421,
      "fy</w>": 3422,
      "poten": 3423,
      "onships</w>": 3424,
      "property</w>": 3425,
      "residents</w>": 3426,
      "houses</w>": 3427,
      "lik": 3428,
      "jersey</w>": 3429,
      "actress</w>": 3430,
      "spea": 3431,
      "digital</w>": 3432,
      "windo": 3433,
      "nucle": 3434,
      "ula</w>": 3435,
      "42</w>": 3436,
      "ferred</w>": 3437,
      "entire</w>": 3438,
      "attrac": 3439,
      "spain</w>": 3440,
      "variety</w>": 3441,
      "tracks</w>": 3442,
      "winter</w>": 3443,
      "prev": 3444,
      "finally</w>": 3445,
      "ander</w>": 3446,
      "ss": 3447,
      "wales</w>": 3448,
      "hockey</w>": 3449,
      "specific</w>": 3450,
      "probl": 3451,
      "voice</w>": 3452,
      "latter</w>": 3453,
      "tually</w>": 3454,
      "selves</w>": 3455,
      "greater</w>": 3456,
      "heavy</w>": 3457,
      "birth</w>": 3458,
      "smo": 3459,
      "soun": 3460,
      "loss</w>": 3461,
      "py": 3462,
      "sun</w>": 3463,
      "decision</w>": 3464,
      "contract</w>": 3465,
      "serving</w>": 3466,
      "ician</w>": 3467,
      "door</w>": 3468,
      "51</w>": 3469,
      "month</w>": 3470,
      "competition</w>": 3471,
      "luc": 3472,
      "distinc": 3473,
      "grand": 3474,
      "mass</w>": 3475,
      "creek</w>": 3476,
      "typically</w>": 3477,
      "separate</w>": 3478,
      "wrest": 3479,
      "double</w>": 3480,
      "spr": 3481,
      "entertain": 3482,
      "jes": 3483,
      "cost</w>": 3484,
      "stand</w>": 3485,
      "politics</w>": 3486,
      "flic": 3487,
      "territory</w>": 3488,
      "recent</w>": 3489,
      "41</w>": 3490,
      "drama</w>": 3491,
      "knowle": 3492,
      "activities</w>": 3493,
      "pennsylvania</w>": 3494,
      "itan</w>": 3495,
      "ysis</w>": 3496,
      "supported</w>": 3497,
      "find</w>": 3498,
      "tware</w>": 3499,
      "95</w>": 3500,
      "bass</w>": 3501,
      "water": 3502,
      "bg": 3503,
      "six": 3504,
      "rail</w>": 3505,
      "medic": 3506,
      "believed</w>": 3507,
      "any": 3508,
      "tax": 3509,
      "after": 3510,
      "1963</w>": 3511,
      "campus</w>": 3512,
      "vic</w>": 3513,
      "software</w>": 3514,
      "dise": 3515,
      "antly</w>": 3516,
      "volume</w>": 3517,
      "sets</w>": 3518,
      "actors</w>": 3519,
      "1962</w>": 3520,
      "rick</w>": 3521,
      "kil": 3522,
      "kansas</w>": 3523,
      "arran": 3524,
      "rich</w>": 3525,
      "jones</w>": 3526,
      "pel": 3527,
      "peace</w>": 3528,
      "aur": 3529,
      "discus": 3530,
      "nas": 3531,
      "takes</w>": 3532,
      "ulty</w>": 3533,
      "cut</w>": 3534,
      "branch</w>": 3535,
      "stars</w>": 3536,
      "senior</w>": 3537,
      "som": 3538,
      "subject</w>": 3539,
      "abe": 3540,
      "ingly</w>": 3541,
      "need</w>": 3542,
      "ix</w>": 3543,
      "proposed</w>": 3544,
      "cars</w>": 3545,
      "tis</w>": 3546,
      "bad": 3547,
      "victory</w>": 3548,
      "00": 3549,
      "comedy</w>": 3550,
      "create</w>": 3551,
      "silver</w>": 3552,
      "grow": 3553,
      "noted</w>": 3554,
      "friends</w>": 3555,
      "disco": 3556,
      "stein</w>": 3557,
      "effects</w>": 3558,
      "alone</w>": 3559,
      "determin": 3560,
      "fit": 3561,
      "subsequently</w>": 3562,
      "weap": 3563,
      "austri": 3564,
      "ials</w>": 3565,
      "georg": 3566,
      "wan</w>": 3567,
      "americ": 3568,
      "likely</w>": 3569,
      "argu": 3570,
      "stro": 3571,
      "iss</w>": 3572,
      "ore": 3573,
      "duke</w>": 3574,
      "becoming</w>": 3575,
      "themselves</w>": 3576,
      "officers</w>": 3577,
      "columbia</w>": 3578,
      "relationship</w>": 3579,
      "mathem": 3580,
      "super</w>": 3581,
      "tac": 3582,
      "dal": 3583,
      "increase</w>": 3584,
      "authority</w>": 3585,
      "inois</w>": 3586,
      "21st</w>": 3587,
      "ots</w>": 3588,
      "therefore</w>": 3589,
      "gence</w>": 3590,
      "55</w>": 3591,
      "wis": 3592,
      "habit": 3593,
      "cause</w>": 3594,
      "necess": 3595,
      "illinois</w>": 3596,
      "chair": 3597,
      "shoo": 3598,
      "ena</w>": 3599,
      "48</w>": 3600,
      "might</w>": 3601,
      "response</w>": 3602,
      "tives</w>": 3603,
      "sty</w>": 3604,
      "fas": 3605,
      "oil</w>": 3606,
      "chestr": 3607,
      "sons</w>": 3608,
      "orchestr": 3609,
      "1961</w>": 3610,
      "ja</w>": 3611,
      "hoo": 3612,
      "farm": 3613,
      "sta</w>": 3614,
      "but": 3615,
      "nearly</w>": 3616,
      "starting</w>": 3617,
      "sport</w>": 3618,
      "categ": 3619,
      "erly</w>": 3620,
      "bbc</w>": 3621,
      "thr": 3622,
      "metro": 3623,
      "francis": 3624,
      "design": 3625,
      "elements</w>": 3626,
      "ultim": 3627,
      "products</w>": 3628,
      "letter</w>": 3629,
      "tically</w>": 3630,
      "techni": 3631,
      "organis": 3632,
      "tionary</w>": 3633,
      "tin": 3634,
      "boston</w>": 3635,
      "ren</w>": 3636,
      "problems</w>": 3637,
      "alo": 3638,
      "physical</w>": 3639,
      "store</w>": 3640,
      "marriage</w>": 3641,
      "economy</w>": 3642,
      "grade</w>": 3643,
      "phone</w>": 3644,
      "jack</w>": 3645,
      "3rd</w>": 3646,
      "ira": 3647,
      "recep": 3648,
      "miss": 3649,
      "mont": 3650,
      "broadca": 3651,
      "promin": 3652,
      "ains</w>": 3653,
      "carolina</w>": 3654,
      "offered</w>": 3655,
      "1944</w>": 3656,
      "golden</w>": 3657,
      "ending</w>": 3658,
      "workers</w>": 3659,
      "kings</w>": 3660,
      "sin</w>": 3661,
      "solution</w>": 3662,
      "crimin": 3663,
      "bgcolor</w>": 3664,
      "eting</w>": 3665,
      "spent</w>": 3666,
      "done</w>": 3667,
      "border</w>": 3668,
      "dead</w>": 3669,
      "polish</w>": 3670,
      "russia</w>": 3671,
      "egyp": 3672,
      "classical</w>": 3673,
      "miles</w>": 3674,
      "evol": 3675,
      "47</w>": 3676,
      "zo": 3677,
      "bit": 3678,
      "nis</w>": 3679,
      "classi": 3680,
      "1960s</w>": 3681,
      "conditions</w>": 3682,
      "clos": 3683,
      "sell</w>": 3684,
      "every": 3685,
      "km": 3686,
      "cies</w>": 3687,
      "uries</w>": 3688,
      "formerly</w>": 3689,
      "blood</w>": 3690,
      "turned</w>": 3691,
      "climate</w>": 3692,
      "vote</w>": 3693,
      "imper": 3694,
      "conclu": 3695,
      "call</w>": 3696,
      "ides</w>": 3697,
      "sta": 3698,
      "metal</w>": 3699,
      "span</w>": 3700,
      "paper</w>": 3701,
      "alities</w>": 3702,
      "repe": 3703,
      "ala</w>": 3704,
      "attended</w>": 3705,
      "idea</w>": 3706,
      "illu": 3707,
      "lay": 3708,
      "personnel</w>": 3709,
      "control": 3710,
      "jud": 3711,
      "growth</w>": 3712,
      "your</w>": 3713,
      "gary</w>": 3714,
      "stop</w>": 3715,
      "sad": 3716,
      "enough</w>": 3717,
      "observ": 3718,
      "failed</w>": 3719,
      "mr</w>": 3720,
      "neighbor": 3721,
      "suppl": 3722,
      "99</w>": 3723,
      "sent": 3724,
      "asp": 3725,
      "comics</w>": 3726,
      "entertainment</w>": 3727,
      "entered</w>": 3728,
      "arms</w>": 3729,
      "si</w>": 3730,
      "imp": 3731,
      "parties</w>": 3732,
      "communities</w>": 3733,
      "iron</w>": 3734,
      "collec": 3735,
      "one": 3736,
      "52</w>": 3737,
      "row": 3738,
      "refl": 3739,
      "legisl": 3740,
      "produce</w>": 3741,
      "burgh</w>": 3742,
      "43</w>": 3743,
      "naval</w>": 3744,
      "whether</w>": 3745,
      "issued</w>": 3746,
      "selected</w>": 3747,
      "troops</w>": 3748,
      "corps</w>": 3749,
      "williams</w>": 3750,
      "strateg": 3751,
      "colo": 3752,
      "commander</w>": 3753,
      "prize</w>": 3754,
      "eman</w>": 3755,
      "gil": 3756,
      "1959</w>": 3757,
      "pop</w>": 3758,
      "avenue</w>": 3759,
      "sites</w>": 3760,
      "han</w>": 3761,
      "rug": 3762,
      "quality</w>": 3763,
      "shown</w>": 3764,
      "philipp": 3765,
      "ella</w>": 3766,
      "transm": 3767,
      "attempt</w>": 3768,
      "near": 3769,
      "che</w>": 3770,
      "pment</w>": 3771,
      "fleet</w>": 3772,
      "tree</w>": 3773,
      "1942</w>": 3774,
      "olympic</w>": 3775,
      "conflic": 3776,
      "fic</w>": 3777,
      "musicians</w>": 3778,
      "itation</w>": 3779,
      "ov": 3780,
      "amount</w>": 3781,
      "steph": 3782,
      "bar</w>": 3783,
      "broadcast</w>": 3784,
      "dav": 3785,
      "consider": 3786,
      "provin": 3787,
      "bing</w>": 3788,
      "istan</w>": 3789,
      "mayor</w>": 3790,
      "flow": 3791,
      "ann</w>": 3792,
      "ali</w>": 3793,
      "clin": 3794,
      "dest</w>": 3795,
      "clear</w>": 3796,
      "got</w>": 3797,
      "mine</w>": 3798,
      "hio</w>": 3799,
      "weeks</w>": 3800,
      "commonly</w>": 3801,
      "kir": 3802,
      "30": 3803,
      "boys</w>": 3804,
      "exclu": 3805,
      "directly</w>": 3806,
      "tax</w>": 3807,
      "agreement</w>": 3808,
      "extre": 3809,
      "supre": 3810,
      "traff": 3811,
      "arth": 3812,
      "jaz": 3813,
      "green": 3814,
      "revolution</w>": 3815,
      "tournament</w>": 3816,
      "deal</w>": 3817,
      "geography</w>": 3818,
      "leaving</w>": 3819,
      "1939</w>": 3820,
      "vey</w>": 3821,
      "oid</w>": 3822,
      "alle": 3823,
      "hot</w>": 3824,
      "ize</w>": 3825,
      "tters</w>": 3826,
      "method</w>": 3827,
      "moving</w>": 3828,
      "bou": 3829,
      "thor": 3830,
      "1941</w>": 3831,
      "models</w>": 3832,
      "rement</w>": 3833,
      "republican</w>": 3834,
      "experience</w>": 3835,
      "rey</w>": 3836,
      "levels</w>": 3837,
      "appear</w>": 3838,
      "acqui": 3839,
      "carried</w>": 3840,
      "smaller</w>": 3841,
      "michig": 3842,
      "machine</w>": 3843,
      "hydro": 3844,
      "frank</w>": 3845,
      "ld": 3846,
      "psych": 3847,
      "divided</w>": 3848,
      "true</w>": 3849,
      "rules</w>": 3850,
      "astr": 3851,
      "ohio</w>": 3852,
      "scen": 3853,
      "statis": 3854,
      "goal</w>": 3855,
      "kat": 3856,
      "designated</w>": 3857,
      "beach</w>": 3858,
      "xi": 3859,
      "patter": 3860,
      "incorporated</w>": 3861,
      "1956</w>": 3862,
      "michigan</w>": 3863,
      "cum": 3864,
      "var": 3865,
      "sn": 3866,
      "ung</w>": 3867,
      "brothers</w>": 3868,
      "discovered</w>": 3869,
      "scene</w>": 3870,
      "drive</w>": 3871,
      "whole</w>": 3872,
      "scored</w>": 3873,
      "presented</w>": 3874,
      "1950</w>": 3875,
      "ites</w>": 3876,
      "primar": 3877,
      "represented</w>": 3878,
      "pati": 3879,
      "1948</w>": 3880,
      "intel": 3881,
      "beha": 3882,
      "jr</w>": 3883,
      "56</w>": 3884,
      "industrial</w>": 3885,
      "junc": 3886,
      "aught</w>": 3887,
      "makes</w>": 3888,
      "railroad</w>": 3889,
      "distribution</w>": 3890,
      "meeting</w>": 3891,
      "46</w>": 3892,
      "49</w>": 3893,
      "fight</w>": 3894,
      "black": 3895,
      "critical</w>": 3896,
      "spac": 3897,
      "journal</w>": 3898,
      "ids</w>": 3899,
      "arab": 3900,
      "keep": 3901,
      "1957</w>": 3902,
      "5th</w>": 3903,
      "wanted</w>": 3904,
      "rob": 3905,
      "provides</w>": 3906,
      "1958</w>": 3907,
      "anna</w>": 3908,
      "extended</w>": 3909,
      "ium</w>": 3910,
      "nearby</w>": 3911,
      "host</w>": 3912,
      "camer": 3913,
      "novels</w>": 3914,
      "stered</w>": 3915,
      "victoria</w>": 3916,
      "opera</w>": 3917,
      "advan": 3918,
      "hit": 3919,
      "jor": 3920,
      "85</w>": 3921,
      "dic</w>": 3922,
      "see": 3923,
      "liberal</w>": 3924,
      "fail": 3925,
      "key": 3926,
      "ute</w>": 3927,
      "remaining</w>": 3928,
      "cd</w>": 3929,
      "occasi": 3930,
      "1940</w>": 3931,
      "coura": 3932,
      "corporation</w>": 3933,
      "addre": 3934,
      "dicated</w>": 3935,
      "4th</w>": 3936,
      "episodes</w>": 3937,
      "ontario</w>": 3938,
      "contemporary</w>": 3939,
      "camp</w>": 3940,
      "lac": 3941,
      "possi": 3942,
      "interpre": 3943,
      "charge</w>": 3944,
      "analysis</w>": 3945,
      "positions</w>": 3946,
      "pass</w>": 3947,
      "mes</w>": 3948,
      "bure": 3949,
      "ao</w>": 3950,
      "jean</w>": 3951,
      "roads</w>": 3952,
      "pin": 3953,
      "parish</w>": 3954,
      "pool</w>": 3955,
      "install": 3956,
      "daily</w>": 3957,
      "francisco</w>": 3958,
      "yet</w>": 3959,
      "quick": 3960,
      "soldiers</w>": 3961,
      "enem": 3962,
      "fra": 3963,
      "ami</w>": 3964,
      "break</w>": 3965,
      "intelli": 3966,
      "1955</w>": 3967,
      "pression</w>": 3968,
      "eding</w>": 3969,
      "told</w>": 3970,
      "ara</w>": 3971,
      "ayl": 3972,
      "girl</w>": 3973,
      "say</w>": 3974,
      "ab</w>": 3975,
      "image</w>": 3976,
      "mainly</w>": 3977,
      "folk</w>": 3978,
      "1946</w>": 3979,
      "constructed</w>": 3980,
      "53</w>": 3981,
      "guard</w>": 3982,
      "anta</w>": 3983,
      "organizations</w>": 3984,
      "98</w>": 3985,
      "herit": 3986,
      "ura</w>": 3987,
      "1943</w>": 3988,
      "plans</w>": 3989,
      "compar": 3990,
      "wood": 3991,
      "tower</w>": 3992,
      "stock</w>": 3993,
      "interview</w>": 3994,
      "chairman</w>": 3995,
      "entation</w>": 3996,
      "dark</w>": 3997,
      "quarters</w>": 3998,
      "acquired</w>": 3999,
      "scott</w>": 4000,
      "rose</w>": 4001,
      "alexander</w>": 4002,
      "uset": 4003,
      "concept</w>": 4004,
      "juni": 4005,
      "chart</w>": 4006,
      "1947</w>": 4007,
      "art": 4008,
      "54</w>": 4009,
      "overall</w>": 4010,
      "temple</w>": 4011,
      "wise</w>": 4012,
      "achuset": 4013,
      "anda</w>": 4014,
      "collabor": 4015,
      "primarily</w>": 4016,
      "legen": 4017,
      "oxford</w>": 4018,
      "inside</w>": 4019,
      "his": 4020,
      "box": 4021,
      "defined</w>": 4022,
      "sher": 4023,
      "sia</w>": 4024,
      "stic</w>": 4025,
      "bud": 4026,
      "massachuset": 4027,
      "defense</w>": 4028,
      "mm</w>": 4029,
      "wea": 4030,
      "operating</w>": 4031,
      "massachusetts</w>": 4032,
      "raised</w>": 4033,
      "tered</w>": 4034,
      "mess": 4035,
      "ere": 4036,
      "leaders</w>": 4037,
      "sle": 4038,
      "cust": 4039,
      "featuring</w>": 4040,
      "behavi": 4041,
      "ingham</w>": 4042,
      "acting</w>": 4043,
      "ame": 4044,
      "rence</w>": 4045,
      "bron": 4046,
      "capac": 4047,
      "squad": 4048,
      "eliz": 4049,
      "fame</w>": 4050,
      "generation</w>": 4051,
      "score</w>": 4052,
      "pes</w>": 4053,
      "maxim": 4054,
      "seasons</w>": 4055,
      "vi</w>": 4056,
      "consum": 4057,
      "88</w>": 4058,
      "nan": 4059,
      "poor</w>": 4060,
      "intended</w>": 4061,
      "acts</w>": 4062,
      "agu": 4063,
      "sian</w>": 4064,
      "pak": 4065,
      "mit</w>": 4066,
      "helped</w>": 4067,
      "mount</w>": 4068,
      "johnson</w>": 4069,
      "96</w>": 4070,
      "fast</w>": 4071,
      "composed</w>": 4072,
      "horse</w>": 4073,
      "menti": 4074,
      "infan": 4075,
      "olympics</w>": 4076,
      "relations</w>": 4077,
      "politan</w>": 4078,
      "hem": 4079,
      "97</w>": 4080,
      "essed</w>": 4081,
      "fifth</w>": 4082,
      "pressure</w>": 4083,
      "occup": 4084,
      "sha": 4085,
      "enth</w>": 4086,
      "stream</w>": 4087,
      "facilities</w>": 4088,
      "modi": 4089,
      "anne</w>": 4090,
      "advent": 4091,
      "mont</w>": 4092,
      "ste</w>": 4093,
      "pag": 4094,
      "treatment</w>": 4095,
      "mari": 4096,
      "versions</w>": 4097,
      "inger</w>": 4098,
      "scale</w>": 4099,
      "fl</w>": 4100,
      "wy": 4101,
      "equipment</w>": 4102,
      "responsible</w>": 4103,
      "retired</w>": 4104,
      "correc": 4105,
      "eme": 4106,
      "neg": 4107,
      "memorial</w>": 4108,
      "demon": 4109,
      "ext": 4110,
      "serves</w>": 4111,
      "parents</w>": 4112,
      "pay": 4113,
      "usa</w>": 4114,
      "academic</w>": 4115,
      "ened</w>": 4116,
      "product</w>": 4117,
      "rome</w>": 4118,
      "hong</w>": 4119,
      "licen": 4120,
      "crew</w>": 4121,
      "1954</w>": 4122,
      "credited</w>": 4123,
      "minutes</w>": 4124,
      "lights</w>": 4125,
      "guar": 4126,
      "dale</w>": 4127,
      "nes</w>": 4128,
      "power": 4129,
      "tte</w>": 4130,
      "descent</w>": 4131,
      "gar</w>": 4132,
      "ables</w>": 4133,
      "exchange</w>": 4134,
      "activity</w>": 4135,
      "fields</w>": 4136,
      "sign</w>": 4137,
      "officially</w>": 4138,
      "independence</w>": 4139,
      "global</w>": 4140,
      "programming</w>": 4141,
      "asked</w>": 4142,
      "largely</w>": 4143,
      "92</w>": 4144,
      "1949</w>": 4145,
      "1953</w>": 4146,
      "nit": 4147,
      "hotel</w>": 4148,
      "acqu": 4149,
      "reci": 4150,
      "succe": 4151,
      "tap": 4152,
      "initial</w>": 4153,
      "dam</w>": 4154,
      "secondary</w>": 4155,
      "traffic</w>": 4156,
      "sli": 4157,
      "acci": 4158,
      "removed</w>": 4159,
      "poe": 4160,
      "atlantic</w>": 4161,
      "ji": 4162,
      "eral</w>": 4163,
      "stren": 4164,
      "57</w>": 4165,
      "regiment</w>": 4166,
      "youth</w>": 4167,
      "dian</w>": 4168,
      "parti": 4169,
      "forts</w>": 4170,
      "bey": 4171,
      "widely</w>": 4172,
      "fair": 4173,
      "spread</w>": 4174,
      "arc": 4175,
      "joe</w>": 4176,
      "yel": 4177,
      "problem</w>": 4178,
      "58</w>": 4179,
      "lady</w>": 4180,
      "perman": 4181,
      "illed</w>": 4182,
      "eless</w>": 4183,
      "conservative</w>": 4184,
      "ditionally</w>": 4185,
      "kong</w>": 4186,
      "supreme</w>": 4187,
      "bon</w>": 4188,
      "assic</w>": 4189,
      "editor</w>": 4190,
      "highly</w>": 4191,
      "mas</w>": 4192,
      "zone</w>": 4193,
      "transportation</w>": 4194,
      "piece</w>": 4195,
      "sexual</w>": 4196,
      "renamed</w>": 4197,
      "distance</w>": 4198,
      "certi": 4199,
      "claim</w>": 4200,
      "lack</w>": 4201,
      "abeth</w>": 4202,
      "birds</w>": 4203,
      "cia</w>": 4204,
      "rich": 4205,
      "dney</w>": 4206,
      "1952</w>": 4207,
      "basis</w>": 4208,
      "newspaper</w>": 4209,
      "hour</w>": 4210,
      "winners</w>": 4211,
      "86</w>": 4212,
      "settlement</w>": 4213,
      "direction</w>": 4214,
      "portion</w>": 4215,
      "km2</w>": 4216,
      "aling</w>": 4217,
      "giving</w>": 4218,
      "viet": 4219,
      "adelph": 4220,
      "web</w>": 4221,
      "brig": 4222,
      "pair</w>": 4223,
      "vision</w>": 4224,
      "sign": 4225,
      "titled</w>": 4226,
      "rugby</w>": 4227,
      "pay</w>": 4228,
      "jur": 4229,
      "gul": 4230,
      "ambig": 4231,
      "build</w>": 4232,
      "ordered</w>": 4233,
      "note</w>": 4234,
      "aylor</w>": 4235,
      "ola</w>": 4236,
      "anning</w>": 4237,
      "pro</w>": 4238,
      "organ</w>": 4239,
      "affili": 4240,
      "except</w>": 4241,
      "ange</w>": 4242,
      "adopted</w>": 4243,
      "ette</w>": 4244,
      "pping</w>": 4245,
      "bab": 4246,
      "christi": 4247,
      "jazz</w>": 4248,
      "jews</w>": 4249,
      "mixed</w>": 4250,
      "georgia</w>": 4251,
      "bles</w>": 4252,
      "kin</w>": 4253,
      "compared</w>": 4254,
      "laws</w>": 4255,
      "scul": 4256,
      "leave</w>": 4257,
      "inde": 4258,
      "streng": 4259,
      "instruc": 4260,
      "toronto</w>": 4261,
      "religion</w>": 4262,
      "fant": 4263,
      "allen</w>": 4264,
      "gene": 4265,
      "dani": 4266,
      "thous": 4267,
      "chron": 4268,
      "66</w>": 4269,
      "promis": 4270,
      "mitted</w>": 4271,
      "letters</w>": 4272,
      "groun": 4273,
      "rise</w>": 4274,
      "planned</w>": 4275,
      "depic": 4276,
      "gallery</w>": 4277,
      "budd": 4278,
      "frank": 4279,
      "mentioned</w>": 4280,
      "rati": 4281,
      "decla": 4282,
      "naz": 4283,
      "consists</w>": 4284,
      "tro</w>": 4285,
      "tail</w>": 4286,
      "ares</w>": 4287,
      "examples</w>": 4288,
      "ementary</w>": 4289,
      "structures</w>": 4290,
      "acher</w>": 4291,
      "94</w>": 4292,
      "trop": 4293,
      "combined</w>": 4294,
      "89</w>": 4295,
      "marked</w>": 4296,
      "quickly</w>": 4297,
      "demonstr": 4298,
      "mom": 4299,
      "starring</w>": 4300,
      "fred</w>": 4301,
      "nick": 4302,
      "aging</w>": 4303,
      "sciences</w>": 4304,
      "kal": 4305,
      "inc</w>": 4306,
      "nuclear</w>": 4307,
      "clubs</w>": 4308,
      "origin</w>": 4309,
      "fru": 4310,
      "format</w>": 4311,
      "tradition</w>": 4312,
      "immediately</w>": 4313,
      "prison": 4314,
      "poland</w>": 4315,
      "potential</w>": 4316,
      "protection</w>": 4317,
      "scientific</w>": 4318,
      "lives</w>": 4319,
      "earl</w>": 4320,
      "advis": 4321,
      "int": 4322,
      "musli": 4323,
      "core</w>": 4324,
      "aut": 4325,
      "93</w>": 4326,
      "cell</w>": 4327,
      "senate</w>": 4328,
      "ben</w>": 4329,
      "insul": 4330,
      "pied</w>": 4331,
      "label</w>": 4332,
      "leadership</w>": 4333,
      "72</w>": 4334,
      "ez</w>": 4335,
      "imperial</w>": 4336,
      "ump</w>": 4337,
      "needed</w>": 4338,
      "vol</w>": 4339,
      "keep</w>": 4340,
      "proce": 4341,
      "59</w>": 4342,
      "replac": 4343,
      "arthur</w>": 4344,
      "fix": 4345,
      "philadelph": 4346,
      "reference</w>": 4347,
      "architecture</w>": 4348,
      "shortly</w>": 4349,
      "fellow</w>": 4350,
      "alternative</w>": 4351,
      "ll": 4352,
      "migr": 4353,
      "estimated</w>": 4354,
      "61</w>": 4355,
      "jected</w>": 4356,
      "berlin</w>": 4357,
      "founder</w>": 4358,
      "67</w>": 4359,
      "continue</w>": 4360,
      "turing</w>": 4361,
      "vard</w>": 4362,
      "regions</w>": 4363,
      "compon": 4364,
      "ius</w>": 4365,
      "itors</w>": 4366,
      "plants</w>": 4367,
      "const": 4368,
      "probably</w>": 4369,
      "poet</w>": 4370,
      "nam</w>": 4371,
      "ising</w>": 4372,
      "account</w>": 4373,
      "stru": 4374,
      "solo</w>": 4375,
      "ands</w>": 4376,
      "poss": 4377,
      "arity</w>": 4378,
      "districts</w>": 4379,
      "basic</w>": 4380,
      "01</w>": 4381,
      "canal</w>": 4382,
      "dv": 4383,
      "storm</w>": 4384,
      "environment</w>": 4385,
      "becomes</w>": 4386,
      "percent</w>": 4387,
      "agreed</w>": 4388,
      "olo": 4389,
      "1951</w>": 4390,
      "domes": 4391,
      "know</w>": 4392,
      "situ": 4393,
      "dp</w>": 4394,
      "arrived</w>": 4395,
      "championships</w>": 4396,
      "faculty</w>": 4397,
      "mike</w>": 4398,
      "juli": 4399,
      "lieu": 4400,
      "philadelphia</w>": 4401,
      "deep</w>": 4402,
      "lew": 4403,
      "77</w>": 4404,
      "cambridge</w>": 4405,
      "technical</w>": 4406,
      "tenant</w>": 4407,
      "saying</w>": 4408,
      "concentr": 4409,
      "vit": 4410,
      "dougl": 4411,
      "knowledge</w>": 4412,
      "78</w>": 4413,
      "organized</w>": 4414,
      "62</w>": 4415,
      "racing</w>": 4416,
      "constitution</w>": 4417,
      "derson</w>": 4418,
      "crow": 4419,
      "cris": 4420,
      "87</w>": 4421,
      "thro": 4422,
      "mountains</w>": 4423,
      "76</w>": 4424,
      "illustr": 4425,
      "91</w>": 4426,
      "81</w>": 4427,
      "someone</w>": 4428,
      "joint</w>": 4429,
      "color": 4430,
      "champion</w>": 4431,
      "junior</w>": 4432,
      "orities</w>": 4433,
      "figure</w>": 4434,
      "300</w>": 4435,
      "pier": 4436,
      "wealth</w>": 4437,
      "dated</w>": 4438,
      "search": 4439,
      "disease</w>": 4440,
      "cement</w>": 4441,
      "critic": 4442,
      "labour</w>": 4443,
      "63</w>": 4444,
      "pack": 4445,
      "thu": 4446,
      "ari</w>": 4447,
      "israel</w>": 4448,
      "heritage</w>": 4449,
      "plot</w>": 4450,
      "safety</w>": 4451,
      "ele": 4452,
      "normal</w>": 4453,
      "zu": 4454,
      "thi": 4455,
      "iss": 4456,
      "taylor</w>": 4457,
      "jan</w>": 4458,
      "lot</w>": 4459,
      "metropolitan</w>": 4460,
      "internet</w>": 4461,
      "prominent</w>": 4462,
      "actually</w>": 4463,
      "novel": 4464,
      "titles</w>": 4465,
      "prepar": 4466,
      "opposition</w>": 4467,
      "now": 4468,
      "creation</w>": 4469,
      "assum": 4470,
      "iv</w>": 4471,
      "affairs</w>": 4472,
      "goals</w>": 4473,
      "grant</w>": 4474,
      "defini": 4475,
      "astic</w>": 4476,
      "accoun": 4477,
      "plane</w>": 4478,
      "jackson</w>": 4479,
      "along": 4480,
      "managed</w>": 4481,
      "bird</w>": 4482,
      "travel</w>": 4483,
      "ric</w>": 4484,
      "aded</w>": 4485,
      "orchestra</w>": 4486,
      "piano</w>": 4487,
      "animals</w>": 4488,
      "gni": 4489,
      "things</w>": 4490,
      "girls</w>": 4491,
      "estate</w>": 4492,
      "correspon": 4493,
      "jim</w>": 4494,
      "ception</w>": 4495,
      "morning</w>": 4496,
      "impact</w>": 4497,
      "memory</w>": 4498,
      "bloc": 4499,
      "wic": 4500,
      "aring</w>": 4501,
      "benef": 4502,
      "representatives</w>": 4503,
      "71</w>": 4504,
      "bibli": 4505,
      "distingu": 4506,
      "orders</w>": 4507,
      "83</w>": 4508,
      "induc": 4509,
      "dynam": 4510,
      "eag": 4511,
      "connected</w>": 4512,
      "1918</w>": 4513,
      "infantry</w>": 4514,
      "stam": 4515,
      "doctor</w>": 4516,
      "paid</w>": 4517,
      "dal</w>": 4518,
      "84</w>": 4519,
      "enty</w>": 4520,
      "battali": 4521,
      "top": 4522,
      "windows</w>": 4523,
      "aband": 4524,
      "garden</w>": 4525,
      "vehicles</w>": 4526,
      "jec": 4527,
      "freedom</w>": 4528,
      "hamp": 4529,
      "bob</w>": 4530,
      "agency</w>": 4531,
      "encies</w>": 4532,
      "comic</w>": 4533,
      "simply</w>": 4534,
      "greatest</w>": 4535,
      "dc</w>": 4536,
      "82</w>": 4537,
      "aps</w>": 4538,
      "onia</w>": 4539,
      "trains</w>": 4540,
      "ov</w>": 4541,
      "resulting</w>": 4542,
      "uel</w>": 4543,
      "difficult</w>": 4544,
      "alongside</w>": 4545,
      "minim": 4546,
      "kit": 4547,
      "ap</w>": 4548,
      "powers</w>": 4549,
      "content</w>": 4550,
      "will": 4551,
      "look</w>": 4552,
      "applied</w>": 4553,
      "seats</w>": 4554,
      "villages</w>": 4555,
      "capacity</w>": 4556,
      "assistant</w>": 4557,
      "wars</w>": 4558,
      "expected</w>": 4559,
      "eigh": 4560,
      "marsh": 4561,
      "purpose</w>": 4562,
      "roy</w>": 4563,
      "elled</w>": 4564,
      "gan</w>": 4565,
      "diag": 4566,
      "prec": 4567,
      "reduced</w>": 4568,
      "onist</w>": 4569,
      "crime</w>": 4570,
      "trial</w>": 4571,
      "declared</w>": 4572,
      "racial</w>": 4573,
      "secret</w>": 4574,
      "crown</w>": 4575,
      "armed</w>": 4576,
      "conv": 4577,
      "rs</w>": 4578,
      "spired</w>": 4579,
      "marg": 4580,
      "dedicated</w>": 4581,
      "las</w>": 4582,
      "nic</w>": 4583,
      "presence</w>": 4584,
      "grew</w>": 4585,
      "nether": 4586,
      "prison</w>": 4587,
      "restric": 4588,
      "fighting</w>": 4589,
      "composer</w>": 4590,
      "elizabeth</w>": 4591,
      "critics</w>": 4592,
      "squadron</w>": 4593,
      "tat": 4594,
      "ip": 4595,
      "confir": 4596,
      "cerem": 4597,
      "alty</w>": 4598,
      "card</w>": 4599,
      "shu": 4600,
      "animal</w>": 4601,
      "68</w>": 4602,
      "sequence</w>": 4603,
      "bourne</w>": 4604,
      "beyond</w>": 4605,
      "74</w>": 4606,
      "falls</w>": 4607,
      "approach</w>": 4608,
      "ini</w>": 4609,
      "scor": 4610,
      "positive</w>": 4611,
      "shel": 4612,
      "projects</w>": 4613,
      "adver": 4614,
      "oes</w>": 4615,
      "allows</w>": 4616,
      "mathematic": 4617,
      "recently</w>": 4618,
      "ush": 4619,
      "steve</w>": 4620,
      "camp": 4621,
      "cannot</w>": 4622,
      "ple": 4623,
      "sax": 4624,
      "sor</w>": 4625,
      "1938</w>": 4626,
      "sculp": 4627,
      "fox</w>": 4628,
      "cold</w>": 4629,
      "sel</w>": 4630,
      "not": 4631,
      "suggested</w>": 4632,
      "secu": 4633,
      "sales</w>": 4634,
      "destroyed</w>": 4635,
      "hosted</w>": 4636,
      "argent": 4637,
      "linear</w>": 4638,
      "chor": 4639,
      "drag": 4640,
      "voted</w>": 4641,
      "cricket</w>": 4642,
      "split</w>": 4643,
      "bureau</w>": 4644,
      "invasi": 4645,
      "lun": 4646,
      "federation</w>": 4647,
      "expen": 4648,
      "unknown</w>": 4649,
      "claims</w>": 4650,
      "fare</w>": 4651,
      "dipl": 4652,
      "simul": 4653,
      "douglas</w>": 4654,
      "sense</w>": 4655,
      "motor": 4656,
      "santa</w>": 4657,
      "1936</w>": 4658,
      "fictional</w>": 4659,
      "efforts</w>": 4660,
      "79</w>": 4661,
      "conf": 4662,
      "suit</w>": 4663,
      "loy": 4664,
      "cells</w>": 4665,
      "ishes</w>": 4666,
      "opport": 4667,
      "convention</w>": 4668,
      "bot": 4669,
      "11": 4670,
      "hat": 4671,
      "platform</w>": 4672,
      "volun": 4673,
      "specific": 4674,
      "ministry</w>": 4675,
      "ott": 4676,
      "respectively</w>": 4677,
      "rain": 4678,
      "accepted</w>": 4679,
      "fc</w>": 4680,
      "lieutenant</w>": 4681,
      "boat</w>": 4682,
      "roll</w>": 4683,
      "communications</w>": 4684,
      "aid</w>": 4685,
      "mad</w>": 4686,
      "vehicle</w>": 4687,
      "educational</w>": 4688,
      "swedish</w>": 4689,
      "kins</w>": 4690,
      "elev": 4691,
      "risk</w>": 4692,
      "rank</w>": 4693,
      "burn</w>": 4694,
      "owner</w>": 4695,
      "depu": 4696,
      "ocean</w>": 4697,
      "rison</w>": 4698,
      "expanded</w>": 4699,
      "kind</w>": 4700,
      "fell</w>": 4701,
      "presidential</w>": 4702,
      "effici": 4703,
      "cus</w>": 4704,
      "graduate</w>": 4705,
      "nel": 4706,
      "champions</w>": 4707,
      "chi</w>": 4708,
      "6th</w>": 4709,
      "li</w>": 4710,
      "happ": 4711,
      "communist</w>": 4712,
      "aqu": 4713,
      "meet</w>": 4714,
      "rhy": 4715,
      "junction</w>": 4716,
      "nasty</w>": 4717,
      "sydney</w>": 4718,
      "progres": 4719,
      "diplom": 4720,
      "forward</w>": 4721,
      "frequently</w>": 4722,
      "finals</w>": 4723,
      "proto": 4724,
      "damage</w>": 4725,
      "inspired</w>": 4726,
      "brea": 4727,
      "bes": 4728,
      "phy</w>": 4729,
      "cad": 4730,
      "vs</w>": 4731,
      "conducted</w>": 4732,
      "reach</w>": 4733,
      "strong": 4734,
      "aya</w>": 4735,
      "wilson</w>": 4736,
      "hip</w>": 4737,
      "kam": 4738,
      "ny": 4739,
      "focus</w>": 4740,
      "candidate</w>": 4741,
      "exc": 4742,
      "simple</w>": 4743,
      "studied</w>": 4744,
      "jen": 4745,
      "elementary</w>": 4746,
      "remain</w>": 4747,
      "wo": 4748,
      "politicians</w>": 4749,
      "rural</w>": 4750,
      "judge</w>": 4751,
      "price</w>": 4752,
      "appearances</w>": 4753,
      "aka</w>": 4754,
      "murder</w>": 4755,
      "bla": 4756,
      "occurred</w>": 4757,
      "vac": 4758,
      "engineer</w>": 4759,
      "rit</w>": 4760,
      "headquarters</w>": 4761,
      "ceme": 4762,
      "surrounding</w>": 4763,
      "honor</w>": 4764,
      "1937</w>": 4765,
      "publishing</w>": 4766,
      "photograph": 4767,
      "harb": 4768,
      "captured</w>": 4769,
      "alan</w>": 4770,
      "bio": 4771,
      "advanced</w>": 4772,
      "69</w>": 4773,
      "hil": 4774,
      "literary</w>": 4775,
      "sr</w>": 4776,
      "uck</w>": 4777,
      "cher": 4778,
      "classic</w>": 4779,
      "ports</w>": 4780,
      "jim": 4781,
      "treaty</w>": 4782,
      "tren": 4783,
      "sevent": 4784,
      "peak</w>": 4785,
      "farm</w>": 4786,
      "americans</w>": 4787,
      "trou": 4788,
      "attle</w>": 4789,
      "satur": 4790,
      "phy": 4791,
      "holy</w>": 4792,
      "expe": 4793,
      "valent</w>": 4794,
      "something</w>": 4795,
      "chris</w>": 4796,
      "netherlands</w>": 4797,
      "formal</w>": 4798,
      "resulted</w>": 4799,
      "foot</w>": 4800,
      "kur": 4801,
      "18th</w>": 4802,
      "ologist</w>": 4803,
      "attention</w>": 4804,
      "temperature</w>": 4805,
      "rap": 4806,
      "sburg</w>": 4807,
      "steel</w>": 4808,
      "winner</w>": 4809,
      "unity</w>": 4810,
      "ble": 4811,
      "than": 4812,
      "block</w>": 4813,
      "votes</w>": 4814,
      "theme</w>": 4815,
      "auto": 4816,
      "labor</w>": 4817,
      "screen</w>": 4818,
      "fying</w>": 4819,
      "73</w>": 4820,
      "demograph": 4821,
      "resources</w>": 4822,
      "premier</w>": 4823,
      "hay": 4824,
      "growing</w>": 4825,
      "revealed</w>": 4826,
      "concert</w>": 4827,
      "iro</w>": 4828,
      "combat</w>": 4829,
      "work": 4830,
      "theater</w>": 4831,
      "follows</w>": 4832,
      "advant": 4833,
      "join</w>": 4834,
      "intelligence</w>": 4835,
      "rivers</w>": 4836,
      "matches</w>": 4837,
      "bi</w>": 4838,
      "yment</w>": 4839,
      "1950s</w>": 4840,
      "tia</w>": 4841,
      "allowing</w>": 4842,
      "purchased</w>": 4843,
      "effective</w>": 4844,
      "learning</w>": 4845,
      "1920</w>": 4846,
      "sweden</w>": 4847,
      "hispan": 4848,
      "kenne": 4849,
      "ud</w>": 4850,
      "illa</w>": 4851,
      "bound</w>": 4852,
      "red": 4853,
      "max</w>": 4854,
      "sab": 4855,
      "complet": 4856,
      "transferred</w>": 4857,
      "legi": 4858,
      "dynasty</w>": 4859,
      "hl</w>": 4860,
      "gained</w>": 4861,
      "anni": 4862,
      "implem": 4863,
      "brid": 4864,
      "tribu": 4865,
      "expansion</w>": 4866,
      "philosophy</w>": 4867,
      "defeat</w>": 4868,
      "felt</w>": 4869,
      "subsequent</w>": 4870,
      "necessary</w>": 4871,
      "etc</w>": 4872,
      "1935</w>": 4873,
      "invest": 4874,
      "flying</w>": 4875,
      "yland</w>": 4876,
      "member": 4877,
      "oppos": 4878,
      "brun": 4879,
      "dram": 4880,
      "environmental</w>": 4881,
      "rain</w>": 4882,
      "400</w>": 4883,
      "wers</w>": 4884,
      "institutions</w>": 4885,
      "alleg": 4886,
      "guil": 4887,
      "mix</w>": 4888,
      "kon": 4889,
      "municipal</w>": 4890,
      "davis</w>": 4891,
      "reserve</w>": 4892,
      "rat": 4893,
      "historian</w>": 4894,
      "revi": 4895,
      "occupied</w>": 4896,
      "andrew</w>": 4897,
      "stephen</w>": 4898,
      "vin</w>": 4899,
      "identified</w>": 4900,
      "cancer</w>": 4901,
      "relatively</w>": 4902,
      "contrac": 4903,
      "aster": 4904,
      "flow</w>": 4905,
      "share</w>": 4906,
      "edge</w>": 4907,
      "palace</w>": 4908,
      "7th</w>": 4909,
      "offer</w>": 4910,
      "assigned</w>": 4911,
      "essing</w>": 4912,
      "minnes": 4913,
      "ira</w>": 4914,
      "schem": 4915,
      "unique</w>": 4916,
      "ranked</w>": 4917,
      "scan": 4918,
      "alliance</w>": 4919,
      "materials</w>": 4920,
      "tony</w>": 4921,
      "functions</w>": 4922,
      "cz": 4923,
      "dit</w>": 4924,
      "bition</w>": 4925,
      "drug</w>": 4926,
      "wrestling</w>": 4927,
      "studi": 4928,
      "1930</w>": 4929,
      "tai": 4930,
      "suffered</w>": 4931,
      "bill": 4932,
      "wave</w>": 4933,
      "younger</w>": 4934,
      "fted</w>": 4935,
      "hills</w>": 4936,
      "opposed</w>": 4937,
      "donald</w>": 4938,
      "arre": 4939,
      "existing</w>": 4940,
      "cycle</w>": 4941,
      "billion</w>": 4942,
      "buff": 4943,
      "mind</w>": 4944,
      "sau": 4945,
      "stances</w>": 4946,
      "job</w>": 4947,
      "zer</w>": 4948,
      "pover": 4949,
      "encoura": 4950,
      "onally</w>": 4951,
      "circu": 4952,
      "guide</w>": 4953,
      "1933</w>": 4954,
      "principal</w>": 4955,
      "earned</w>": 4956,
      "granted</w>": 4957,
      "minnesota</w>": 4958,
      "hag": 4959,
      "soft</w>": 4960,
      "yl</w>": 4961,
      "monum": 4962,
      "jo</w>": 4963,
      "disambig": 4964,
      "bad</w>": 4965,
      "pson</w>": 4966,
      "eval</w>": 4967,
      "introduction</w>": 4968,
      "methods</w>": 4969,
      "05</w>": 4970,
      "nings</w>": 4971,
      "maria</w>": 4972,
      "fm</w>": 4973,
      "gal</w>": 4974,
      "tices</w>": 4975,
      "ille</w>": 4976,
      "ert</w>": 4977,
      "achiev": 4978,
      "restaur": 4979,
      "phase</w>": 4980,
      "tropical</w>": 4981,
      "mes": 4982,
      "make": 4983,
      "analy": 4984,
      "brand</w>": 4985,
      "sively</w>": 4986,
      "factory</w>": 4987,
      "disambiguation</w>": 4988,
      "brian</w>": 4989,
      "wright</w>": 4990,
      "anian</w>": 4991,
      "yan</w>": 4992,
      "recognized</w>": 4993,
      "officials</w>": 4994,
      "aus": 4995,
      "yellow</w>": 4996,
      "ises</w>": 4997,
      "turk": 4998,
      "ram</w>": 4999,
      "chemical</w>": 5000,
      "ern": 5001,
      "world": 5002,
      "semi</w>": 5003,
      "sides</w>": 5004,
      "dang": 5005,
      "map</w>": 5006,
      "attacks</w>": 5007,
      "stence</w>": 5008,
      "reven": 5009,
      "tried</w>": 5010,
      "alization</w>": 5011,
      "wall": 5012,
      "user</w>": 5013,
      "anton": 5014,
      "dog</w>": 5015,
      "drums</w>": 5016,
      "fa</w>": 5017,
      "centuries</w>": 5018,
      "kept</w>": 5019,
      "entry</w>": 5020,
      "poetry</w>": 5021,
      "wild</w>": 5022,
      "spar": 5023,
      "recomm": 5024,
      "tled</w>": 5025,
      "register</w>": 5026,
      "korea</w>": 5027,
      "roles</w>": 5028,
      "1929</w>": 5029,
      "northwest</w>": 5030,
      "freder": 5031,
      "articles</w>": 5032,
      "guest</w>": 5033,
      "cemetery</w>": 5034,
      "02</w>": 5035,
      "gene</w>": 5036,
      "lined</w>": 5037,
      "fuel</w>": 5038,
      "mo</w>": 5039,
      "inet</w>": 5040,
      "program": 5041,
      "1914</w>": 5042,
      "prise</w>": 5043,
      "facility</w>": 5044,
      "figures</w>": 5045,
      "lis": 5046,
      "oldest</w>": 5047,
      "graph</w>": 5048,
      "completely</w>": 5049,
      "gives</w>": 5050,
      "colonial</w>": 5051,
      "medicine</w>": 5052,
      "twenty</w>": 5053,
      "nie</w>": 5054,
      "refused</w>": 5055,
      "nur": 5056,
      "real": 5057,
      "motion</w>": 5058,
      "plus</w>": 5059,
      "goes</w>": 5060,
      "archae": 5061,
      "ull</w>": 5062,
      "ouse</w>": 5063,
      "trin": 5064,
      "conflict</w>": 5065,
      "francis</w>": 5066,
      "revolu": 5067,
      "properties</w>": 5068,
      "pope</w>": 5069,
      "fon": 5070,
      "sy</w>": 5071,
      "lane</w>": 5072,
      "commissioned</w>": 5073,
      "mi</w>": 5074,
      "ani</w>": 5075,
      "ortho": 5076,
      "jon": 5077,
      "ign": 5078,
      "1934</w>": 5079,
      "lyric": 5080,
      "footballer</w>": 5081,
      "resc": 5082,
      "administrative</w>": 5083,
      "says</w>": 5084,
      "aired</w>": 5085,
      "ries</w>": 5086,
      "motor</w>": 5087,
      "signal</w>": 5088,
      "containing</w>": 5089,
      "derived</w>": 5090,
      "brazil</w>": 5091,
      "link</w>": 5092,
      "vals</w>": 5093,
      "asy</w>": 5094,
      "universi": 5095,
      "employe": 5096,
      "gency</w>": 5097,
      "bile</w>": 5098,
      "rebel": 5099,
      "offers</w>": 5100,
      "conc": 5101,
      "beat": 5102,
      "tan</w>": 5103,
      "eces</w>": 5104,
      "1932</w>": 5105,
      "moon</w>": 5106,
      "gon": 5107,
      "portugu": 5108,
      "hap": 5109,
      "reason</w>": 5110,
      "hands</w>": 5111,
      "suspen": 5112,
      "itable</w>": 5113,
      "1919</w>": 5114,
      "wag": 5115,
      "custom": 5116,
      "toral</w>": 5117,
      "1928</w>": 5118,
      "providing</w>": 5119,
      "eye</w>": 5120,
      "weather</w>": 5121,
      "souri</w>": 5122,
      "rants</w>": 5123,
      "documentary</w>": 5124,
      "cit": 5125,
      "gest</w>": 5126,
      "compil": 5127,
      "cinem": 5128,
      "ens": 5129,
      "studios</w>": 5130,
      "missouri</w>": 5131,
      "tz</w>": 5132,
      "reports</w>": 5133,
      "depar": 5134,
      "display</w>": 5135,
      "where": 5136,
      "attribu": 5137,
      "enter</w>": 5138,
      "islam": 5139,
      "lem": 5140,
      "propos": 5141,
      "speech</w>": 5142,
      "1917</w>": 5143,
      "remo": 5144,
      "yard</w>": 5145,
      "passenger</w>": 5146,
      "electronic</w>": 5147,
      "04</w>": 5148,
      "agent</w>": 5149,
      "standards</w>": 5150,
      "settled</w>": 5151,
      "bec</w>": 5152,
      "break": 5153,
      "07</w>": 5154,
      "advoc": 5155,
      "drew</w>": 5156,
      "lewis</w>": 5157,
      "populated</w>": 5158,
      "icity</w>": 5159,
      "mp</w>": 5160,
      "dry</w>": 5161,
      "yn</w>": 5162,
      "dispu": 5163,
      "performing</w>": 5164,
      "citizens</w>": 5165,
      "bibliography</w>": 5166,
      "merged</w>": 5167,
      "yers</w>": 5168,
      "conqu": 5169,
      "classes</w>": 5170,
      "sort</w>": 5171,
      "kor": 5172,
      "pilot</w>": 5173,
      "mexican</w>": 5174,
      "southeast</w>": 5175,
      "publication</w>": 5176,
      "bag": 5177,
      "unlike</w>": 5178,
      "garian</w>": 5179,
      "twel": 5180,
      "gets</w>": 5181,
      "rid": 5182,
      "matter</w>": 5183,
      "floor</w>": 5184,
      "portuguese</w>": 5185,
      "effort</w>": 5186,
      "apparen": 5187,
      "weapons</w>": 5188,
      "narr": 5189,
      "stored</w>": 5190,
      "poverty</w>": 5191,
      "makeup</w>": 5192,
      "ww": 5193,
      "phen": 5194,
      "recipi": 5195,
      "1922</w>": 5196,
      "stop": 5197,
      "wind</w>": 5198,
      "controlled</w>": 5199,
      "author": 5200,
      "develop</w>": 5201,
      "mill</w>": 5202,
      "perf": 5203,
      "shad": 5204,
      "follow</w>": 5205,
      "heat</w>": 5206,
      "description</w>": 5207,
      "internal</w>": 5208,
      "supply</w>": 5209,
      "arian</w>": 5210,
      "seg": 5211,
      "supporting</w>": 5212,
      "promoted</w>": 5213,
      "06</w>": 5214,
      "twice</w>": 5215,
      "engines</w>": 5216,
      "wings</w>": 5217,
      "jesus</w>": 5218,
      "aska</w>": 5219,
      "influenced</w>": 5220,
      "ities</w>": 5221,
      "continues</w>": 5222,
      "prevent</w>": 5223,
      "trees</w>": 5224,
      "ria</w>": 5225,
      "increasing</w>": 5226,
      "newly</w>": 5227,
      "va": 5228,
      "como": 5229,
      "equal</w>": 5230,
      "03</w>": 5231,
      "elim": 5232,
      "consul": 5233,
      "decre": 5234,
      "animated</w>": 5235,
      "applications</w>": 5236,
      "battalion</w>": 5237,
      "couples</w>": 5238,
      "drawn</w>": 5239,
      "investig": 5240,
      "eli</w>": 5241,
      "defence</w>": 5242,
      "powerful</w>": 5243,
      "dat": 5244,
      "kol": 5245,
      "wiscon": 5246,
      "enemy</w>": 5247,
      "nego": 5248,
      "broke</w>": 5249,
      "planning</w>": 5250,
      "indiana</w>": 5251,
      "dvd</w>": 5252,
      "wisconsin</w>": 5253,
      "titu": 5254,
      "harmon": 5255,
      "harry</w>": 5256,
      "su</w>": 5257,
      "write</w>": 5258,
      "fine</w>": 5259,
      "civil": 5260,
      "isher</w>": 5261,
      "lightly</w>": 5262,
      "chen</w>": 5263,
      "charts</w>": 5264,
      "dean</w>": 5265,
      "aked</w>": 5266,
      "trust</w>": 5267,
      "nights</w>": 5268,
      "application</w>": 5269,
      "daniel</w>": 5270,
      "tim</w>": 5271,
      "shared</w>": 5272,
      "tier</w>": 5273,
      "counter": 5274,
      "permanent</w>": 5275,
      "stood</w>": 5276,
      "08</w>": 5277,
      "ultimately</w>": 5278,
      "weekly</w>": 5279,
      "fans</w>": 5280,
      "visited</w>": 5281,
      "performances</w>": 5282,
      "thesis</w>": 5283,
      "1931</w>": 5284,
      "visi": 5285,
      "negoti": 5286,
      "bian</w>": 5287,
      "domestic</w>": 5288,
      "friend": 5289,
      "challeng": 5290,
      "lets</w>": 5291,
      "beat</w>": 5292,
      "feet</w>": 5293,
      "draw</w>": 5294,
      "tus</w>": 5295,
      "begins</w>": 5296,
      "ier</w>": 5297,
      "eric</w>": 5298,
      "shop</w>": 5299,
      "lec": 5300,
      "bern": 5301,
      "choice</w>": 5302,
      "exer": 5303,
      "jose</w>": 5304,
      "admir": 5305,
      "teacher</w>": 5306,
      "selling</w>": 5307,
      "setting</w>": 5308,
      "other": 5309,
      "enjo": 5310,
      "tioned</w>": 5311,
      "situation</w>": 5312,
      "failure</w>": 5313,
      "ission</w>": 5314,
      "express</w>": 5315,
      "nominated</w>": 5316,
      "list": 5317,
      "ayed</w>": 5318,
      "values</w>": 5319,
      "translation</w>": 5320,
      "multi</w>": 5321,
      "print</w>": 5322,
      "buried</w>": 5323,
      "glass</w>": 5324,
      "question</w>": 5325,
      "awa</w>": 5326,
      "fair</w>": 5327,
      "lins</w>": 5328,
      "refu": 5329,
      "grounds</w>": 5330,
      "tations</w>": 5331,
      "presents</w>": 5332,
      "showed</w>": 5333,
      "aer": 5334,
      "oph": 5335,
      "visit</w>": 5336,
      "universities</w>": 5337,
      "reviews</w>": 5338,
      "pieces</w>": 5339,
      "dimen": 5340,
      "german": 5341,
      "8th</w>": 5342,
      "gie</w>": 5343,
      "connection</w>": 5344,
      "norway</w>": 5345,
      "receive</w>": 5346,
      "princ": 5347,
      "efs</w>": 5348,
      "09</w>": 5349,
      "1925</w>": 5350,
      "deter": 5351,
      "1921</w>": 5352,
      "rear</w>": 5353,
      "shore</w>": 5354,
      "publications</w>": 5355,
      "1924</w>": 5356,
      "ilian</w>": 5357,
      "aware</w>": 5358,
      "flag</w>": 5359,
      "fab": 5360,
      "demographics</w>": 5361,
      "ottom": 5362,
      "tili": 5363,
      "chain</w>": 5364,
      "albert</w>": 5365,
      "iling</w>": 5366,
      "eur</w>": 5367,
      "istics</w>": 5368,
      "extensive</w>": 5369,
      "pione": 5370,
      "screen": 5371,
      "marks</w>": 5372,
      "gab": 5373,
      "approved</w>": 5374,
      "vietnam</w>": 5375,
      "selec": 5376,
      "locomo": 5377,
      "brigade</w>": 5378,
      "attempted</w>": 5379,
      "pm</w>": 5380,
      "guns</w>": 5381,
      "simon</w>": 5382,
      "calcul": 5383,
      "fan</w>": 5384,
      "employed</w>": 5385,
      "occur</w>": 5386,
      "invasion</w>": 5387,
      "identity</w>": 5388,
      "kill</w>": 5389,
      "belong": 5390,
      "pad": 5391,
      "amend": 5392,
      "common": 5393,
      "ves": 5394,
      "quo": 5395,
      "subur": 5396,
      "chec": 5397,
      "audience</w>": 5398,
      "height</w>": 5399,
      "eful</w>": 5400,
      "audio</w>": 5401,
      "rho": 5402,
      "ethnic</w>": 5403,
      "pakistan</w>": 5404,
      "buddh": 5405,
      "eco": 5406,
      "boards</w>": 5407,
      "honor": 5408,
      "nig": 5409,
      "string</w>": 5410,
      "versary</w>": 5411,
      "ssed</w>": 5412,
      "bring</w>": 5413,
      "authorities</w>": 5414,
      "lywood</w>": 5415,
      "9th</w>": 5416,
      "decor": 5417,
      "object</w>": 5418,
      "passing</w>": 5419,
      "transfer</w>": 5420,
      "speaking</w>": 5421,
      "launch</w>": 5422,
      "bey</w>": 5423,
      "disci": 5424,
      "medieval</w>": 5425,
      "sixth</w>": 5426,
      "leaves</w>": 5427,
      "advertis": 5428,
      "want</w>": 5429,
      "wav": 5430,
      "bay": 5431,
      "lam</w>": 5432,
      "kent": 5433,
      "viewed</w>": 5434,
      "quebec</w>": 5435,
      "parks</w>": 5436,
      "fire": 5437,
      "churches</w>": 5438,
      "ock</w>": 5439,
      "1923</w>": 5440,
      "bap": 5441,
      "phas": 5442,
      "las": 5443,
      "dred</w>": 5444,
      "acted</w>": 5445,
      "driver</w>": 5446,
      "boy": 5447,
      "adult</w>": 5448,
      "exist</w>": 5449,
      "1927</w>": 5450,
      "tton</w>": 5451,
      "oning</w>": 5452,
      "chosen</w>": 5453,
      "theore": 5454,
      "fly</w>": 5455,
      "1926</w>": 5456,
      "negative</w>": 5457,
      "sound": 5458,
      "missing</w>": 5459,
      "dioc": 5460,
      "successfully</w>": 5461,
      "creating</w>": 5462,
      "resistance</w>": 5463,
      "edul": 5464,
      "offen": 5465,
      "attempts</w>": 5466,
      "well": 5467,
      "mean</w>": 5468,
      "roo": 5469,
      "holding</w>": 5470,
      "passes</w>": 5471,
      "come": 5472,
      "life": 5473,
      "arm</w>": 5474,
      "reception</w>": 5475,
      "ego</w>": 5476,
      "locations</w>": 5477,
      "musician</w>": 5478,
      "franch": 5479,
      "taining</w>": 5480,
      "programme</w>": 5481,
      "ich": 5482,
      "hispanic</w>": 5483,
      "td</w>": 5484,
      "schedul": 5485,
      "greece</w>": 5486,
      "category</w>": 5487,
      "walter</w>": 5488,
      "korean</w>": 5489,
      "singap": 5490,
      "trail</w>": 5491,
      "picture</w>": 5492,
      "fashi": 5493,
      "perio": 5494,
      "mani": 5495,
      "couple</w>": 5496,
      "banks</w>": 5497,
      "ogy</w>": 5498,
      "garden": 5499,
      "draft</w>": 5500,
      "clark</w>": 5501,
      "dropped</w>": 5502,
      "howard</w>": 5503,
      "communication</w>": 5504,
      "householder</w>": 5505,
      "wild": 5506,
      "divisions</w>": 5507,
      "perform</w>": 5508,
      "worldwide</w>": 5509,
      "kr": 5510,
      "condition</w>": 5511,
      "fortun": 5512,
      "singapore</w>": 5513,
      "rian</w>": 5514,
      "universal</w>": 5515,
      "profile</w>": 5516,
      "rober": 5517,
      "genus</w>": 5518,
      "pron": 5519,
      "mouth</w>": 5520,
      "succeeded</w>": 5521,
      "day": 5522,
      "teaching</w>": 5523,
      "lyn": 5524,
      "teenth</w>": 5525,
      "circul": 5526,
      "bodies</w>": 5527,
      "accompan": 5528,
      "maximum</w>": 5529,
      "lincol": 5530,
      "less": 5531,
      "manchester</w>": 5532,
      "contact</w>": 5533,
      "ware</w>": 5534,
      "thin": 5535,
      "nfl</w>": 5536,
      "ideas</w>": 5537,
      "believe</w>": 5538,
      "unable</w>": 5539,
      "pursu": 5540,
      "oul": 5541,
      "jeff": 5542,
      "legacy</w>": 5543,
      "egypt</w>": 5544,
      "returning</w>": 5545,
      "usual</w>": 5546,
      "cry": 5547,
      "refers</w>": 5548,
      "mobile</w>": 5549,
      "northeast</w>": 5550,
      "oured</w>": 5551,
      "bt</w>": 5552,
      "slightly</w>": 5553,
      "17th</w>": 5554,
      "chess</w>": 5555,
      "bands</w>": 5556,
      "sam</w>": 5557,
      "scholars</w>": 5558,
      "astronom": 5559,
      "rapi": 5560,
      "efly</w>": 5561,
      "ela</w>": 5562,
      "agricultural</w>": 5563,
      "why</w>": 5564,
      "wed": 5565,
      "tie</w>": 5566,
      "meant</w>": 5567,
      "achieved</w>": 5568,
      "journalist</w>": 5569,
      "hamil": 5570,
      "chamber</w>": 5571,
      "mp": 5572,
      "rein": 5573,
      "typical</w>": 5574,
      "representative</w>": 5575,
      "nag": 5576,
      "coordin": 5577,
      "angle</w>": 5578,
      "vo</w>": 5579,
      "abol": 5580,
      "consist": 5581,
      "interior</w>": 5582,
      "patrick</w>": 5583,
      "ector</w>": 5584,
      "lyrics</w>": 5585,
      "ulation</w>": 5586,
      "carry</w>": 5587,
      "coast": 5588,
      "broadcasting</w>": 5589,
      "reform</w>": 5590,
      "causes</w>": 5591,
      "nothing</w>": 5592,
      "iran</w>": 5593,
      "losing</w>": 5594,
      "marke": 5595,
      "objects</w>": 5596,
      "establishment</w>": 5597,
      "aki</w>": 5598,
      "crisis</w>": 5599,
      "deliver": 5600,
      "singers</w>": 5601,
      "anniversary</w>": 5602,
      "cardin": 5603,
      "convic": 5604,
      "specifically</w>": 5605,
      "emphas": 5606,
      "tennes": 5607,
      "southwest</w>": 5608,
      "drum": 5609,
      "colorado</w>": 5610,
      "existence</w>": 5611,
      "1912</w>": 5612,
      "myster": 5613,
      "1900</w>": 5614,
      "insur": 5615,
      "anderson</w>": 5616,
      "ania</w>": 5617,
      "composition</w>": 5618,
      "counter</w>": 5619,
      "atures</w>": 5620,
      "firm</w>": 5621,
      "bau": 5622,
      "iter": 5623,
      "tennessee</w>": 5624,
      "translated</w>": 5625,
      "gnition</w>": 5626,
      "gy": 5627,
      "fought</w>": 5628,
      "bowl</w>": 5629,
      "austria</w>": 5630,
      "step</w>": 5631,
      "pav": 5632,
      "inated</w>": 5633,
      "kid": 5634,
      "cathe": 5635,
      "deputy</w>": 5636,
      "sphere</w>": 5637,
      "arena</w>": 5638,
      "phr": 5639,
      "looking</w>": 5640,
      "converted</w>": 5641,
      "christmas</w>": 5642,
      "vised</w>": 5643,
      "determined</w>": 5644,
      "nor</w>": 5645,
      "cs</w>": 5646,
      "counties</w>": 5647,
      "stal": 5648,
      "christ</w>": 5649,
      "broken</w>": 5650,
      "thm</w>": 5651,
      "enge</w>": 5652,
      "deplo": 5653,
      "copies</w>": 5654,
      "recordings</w>": 5655,
      "pictures</w>": 5656,
      "provincial</w>": 5657,
      "versus</w>": 5658,
      "essions</w>": 5659,
      "capit": 5660,
      "haps</w>": 5661,
      "geograph": 5662,
      "speople</w>": 5663,
      "amat": 5664,
      "sust": 5665,
      "veter": 5666,
      "terminal</w>": 5667,
      "miller</w>": 5668,
      "regarded</w>": 5669,
      "equivalent</w>": 5670,
      "arrang": 5671,
      "ek": 5672,
      "predic": 5673,
      "yan": 5674,
      "rare</w>": 5675,
      "toward</w>": 5676,
      "1916</w>": 5677,
      "htt": 5678,
      "reasons</w>": 5679,
      "treas": 5680,
      "target</w>": 5681,
      "jar": 5682,
      "had": 5683,
      "1915</w>": 5684,
      "stores</w>": 5685,
      "sections</w>": 5686,
      "scrip": 5687,
      "bush</w>": 5688,
      "malay": 5689,
      "contex": 5690,
      "hits</w>": 5691,
      "maryland</w>": 5692,
      "iraq</w>": 5693,
      "consol": 5694,
      "croati": 5695,
      "band": 5696,
      "faced</w>": 5697,
      "blan": 5698,
      "sunday</w>": 5699,
      "think</w>": 5700,
      "fantasy</w>": 5701,
      "statistics</w>": 5702,
      "escape</w>": 5703,
      "gender</w>": 5704,
      "eller</w>": 5705,
      "rel</w>": 5706,
      "situated</w>": 5707,
      "path</w>": 5708,
      "volunte": 5709,
      "bone</w>": 5710,
      "alp": 5711,
      "bed": 5712,
      "aria</w>": 5713,
      "hope</w>": 5714,
      "ariz": 5715,
      "brad": 5716,
      "extension</w>": 5717,
      "shape</w>": 5718,
      "formula</w>": 5719,
      "perhaps</w>": 5720,
      "strugg": 5721,
      "arily</w>": 5722,
      "pressed</w>": 5723,
      "hollywood</w>": 5724,
      "walk</w>": 5725,
      "augu": 5726,
      "bled</w>": 5727,
      "continental</w>": 5728,
      "exerc": 5729,
      "chapter</w>": 5730,
      "ug": 5731,
      "alco": 5732,
      "cc</w>": 5733,
      "e9": 5734,
      "greg": 5735,
      "1910</w>": 5736,
      "killing</w>": 5737,
      "indon": 5738,
      "roger</w>": 5739,
      "visual</w>": 5740,
      "abilities</w>": 5741,
      "hypo": 5742,
      "cyclo": 5743,
      "indones": 5744,
      "ig</w>": 5745,
      "peter": 5746,
      "pher</w>": 5747,
      "oppon": 5748,
      "philip</w>": 5749,
      "repu": 5750,
      "heard</w>": 5751,
      "fund</w>": 5752,
      "rabb": 5753,
      "adjac": 5754,
      "ridge</w>": 5755,
      "heads</w>": 5756,
      "bang": 5757,
      "pir": 5758,
      "avoid</w>": 5759,
      "eries</w>": 5760,
      "af</w>": 5761,
      "factor</w>": 5762,
      "aster</w>": 5763,
      "has": 5764,
      "rough": 5765,
      "hero</w>": 5766,
      "ila</w>": 5767,
      "gain</w>": 5768,
      "tha</w>": 5769,
      "corn": 5770,
      "argued</w>": 5771,
      "anthro": 5772,
      "ssi": 5773,
      "haz": 5774,
      "houston</w>": 5775,
      "poses</w>": 5776,
      "way": 5777,
      "rif": 5778,
      "earliest</w>": 5779,
      "satell": 5780,
      "cabinet</w>": 5781,
      "orange</w>": 5782,
      "ul</w>": 5783,
      "begin</w>": 5784,
      "cricke": 5785,
      "emo": 5786,
      "challenge</w>": 5787,
      "philippines</w>": 5788,
      "erson</w>": 5789,
      "teach": 5790,
      "downtown</w>": 5791,
      "sought</w>": 5792,
      "labor": 5793,
      "agriculture</w>": 5794,
      "solved</w>": 5795,
      "pan</w>": 5796,
      "regarding</w>": 5797,
      "inn</w>": 5798,
      "opini": 5799,
      "dral</w>": 5800,
      "norwe": 5801,
      "contained</w>": 5802,
      "retirement</w>": 5803,
      "techniques</w>": 5804,
      "eland</w>": 5805,
      "airlines</w>": 5806,
      "bought</w>": 5807,
      "racy</w>": 5808,
      "responsi": 5809,
      "kes": 5810,
      "decades</w>": 5811,
      "hamilton</w>": 5812,
      "charged</w>": 5813,
      "crus": 5814,
      "happen": 5815,
      "routes</w>": 5816,
      "definition</w>": 5817,
      "reaction</w>": 5818,
      "heavily</w>": 5819,
      "images</w>": 5820,
      "scenes</w>": 5821,
      "abandoned</w>": 5822,
      "combination</w>": 5823,
      "dial": 5824,
      "appropri": 5825,
      "lan</w>": 5826,
      "ea</w>": 5827,
      "tab": 5828,
      "magic</w>": 5829,
      "possibly</w>": 5830,
      "obtained</w>": 5831,
      "holds</w>": 5832,
      "advance</w>": 5833,
      "founding</w>": 5834,
      "rot": 5835,
      "serious</w>": 5836,
      "adjacent</w>": 5837,
      "detro": 5838,
      "carr": 5839,
      "entitled</w>": 5840,
      "rie</w>": 5841,
      "gau": 5842,
      "criminal</w>": 5843,
      "sector</w>": 5844,
      "favor": 5845,
      "gold": 5846,
      "stay</w>": 5847,
      "doing</w>": 5848,
      "violence</w>": 5849,
      "occurs</w>": 5850,
      "magne": 5851,
      "bin</w>": 5852,
      "1913</w>": 5853,
      "kee</w>": 5854,
      "covering</w>": 5855,
      "operate</w>": 5856,
      "educated</w>": 5857,
      "ounds</w>": 5858,
      "detroit</w>": 5859,
      "parliamentary</w>": 5860,
      "blu": 5861,
      "16th</w>": 5862,
      "mon</w>": 5863,
      "strength</w>": 5864,
      "soccer</w>": 5865,
      "assass": 5866,
      "substan": 5867,
      "producing</w>": 5868,
      "swim": 5869,
      "protected</w>": 5870,
      "pref": 5871,
      "imag": 5872,
      "recre": 5873,
      "circuit</w>": 5874,
      "fat": 5875,
      "accur": 5876,
      "palities</w>": 5877,
      "maintained</w>": 5878,
      "amp": 5879,
      "swiss</w>": 5880,
      "zes</w>": 5881,
      "bish": 5882,
      "ucky</w>": 5883,
      "controversi": 5884,
      "ros": 5885,
      "dd</w>": 5886,
      "lum": 5887,
      "regulations</w>": 5888,
      "muslim</w>": 5889,
      "reign</w>": 5890,
      "talk</w>": 5891,
      "rates</w>": 5892,
      "ho</w>": 5893,
      "norwegian</w>": 5894,
      "planet</w>": 5895,
      "peninsul": 5896,
      "dul": 5897,
      "sion": 5898,
      "inations</w>": 5899,
      "tile</w>": 5900,
      "entirely</w>": 5901,
      "fications</w>": 5902,
      "corner</w>": 5903,
      "rements</w>": 5904,
      "kyo</w>": 5905,
      "lions</w>": 5906,
      "sist</w>": 5907,
      "ora</w>": 5908,
      "susp": 5909,
      "twelve</w>": 5910,
      "islamic</w>": 5911,
      "cat</w>": 5912,
      "ruled</w>": 5913,
      "quite</w>": 5914,
      "rowspan</w>": 5915,
      "debu": 5916,
      "improved</w>": 5917,
      "users</w>": 5918,
      "notably</w>": 5919,
      "blues</w>": 5920,
      "20s</w>": 5921,
      "productions</w>": 5922,
      "confirmed</w>": 5923,
      "rice</w>": 5924,
      "fighter</w>": 5925,
      "ppi</w>": 5926,
      "edited</w>": 5927,
      "threat": 5928,
      "expressed</w>": 5929,
      "candidates</w>": 5930,
      "load</w>": 5931,
      "lers</w>": 5932,
      "melbourne</w>": 5933,
      "won": 5934,
      "chen": 5935,
      "preci": 5936,
      "headed</w>": 5937,
      "orthodo": 5938,
      "tar</w>": 5939,
      "princess</w>": 5940,
      "inary</w>": 5941,
      "dson</w>": 5942,
      "genous</w>": 5943,
      "alban": 5944,
      "ottoman</w>": 5945,
      "latino</w>": 5946,
      "disc</w>": 5947,
      "inner</w>": 5948,
      "faith</w>": 5949,
      "suffici": 5950,
      "akes</w>": 5951,
      "effec": 5952,
      "hundred</w>": 5953,
      "kentucky</w>": 5954,
      "acid</w>": 5955,
      "soul</w>": 5956,
      "eves</w>": 5957,
      "aret</w>": 5958,
      "directors</w>": 5959,
      "entran": 5960,
      "quarter</w>": 5961,
      "billboard</w>": 5962,
      "causing</w>": 5963,
      "actresses</w>": 5964,
      "elli": 5965,
      "alling</w>": 5966,
      "mosco": 5967,
      "antine</w>": 5968,
      "painting</w>": 5969,
      "incident</w>": 5970,
      "partn": 5971,
      "alab": 5972,
      "chair</w>": 5973,
      "injury</w>": 5974,
      "adapted</w>": 5975,
      "commission": 5976,
      "device</w>": 5977,
      "streets</w>": 5978,
      "infra": 5979,
      "recognition</w>": 5980,
      "ault</w>": 5981,
      "eu</w>": 5982,
      "participated</w>": 5983,
      "zero</w>": 5984,
      "sale</w>": 5985,
      "attor": 5986,
      "tum</w>": 5987,
      "arrested</w>": 5988,
      "issi": 5989,
      "legislative</w>": 5990,
      "covers</w>": 5991,
      "needs</w>": 5992,
      "twin</w>": 5993,
      "wind": 5994,
      "blin</w>": 5995,
      "pages</w>": 5996,
      "rep": 5997,
      "eing</w>": 5998,
      "circle</w>": 5999,
      "eth</w>": 6000,
      "alber": 6001,
      "iner</w>": 6002,
      "landing</w>": 6003,
      "subsi": 6004,
      "script</w>": 6005,
      "minute</w>": 6006,
      "attacked</w>": 6007,
      "discovery</w>": 6008,
      "offices</w>": 6009,
      "research": 6010,
      "migration</w>": 6011,
      "eur": 6012,
      "proved</w>": 6013,
      "brain</w>": 6014,
      "none</w>": 6015,
      "slow</w>": 6016,
      "manufacturing</w>": 6017,
      "wick</w>": 6018,
      "zo</w>": 6019,
      "merc": 6020,
      "choo": 6021,
      "physics</w>": 6022,
      "bby</w>": 6023,
      "colleg": 6024,
      "rooms</w>": 6025,
      "senator</w>": 6026,
      "fts</w>": 6027,
      "contain</w>": 6028,
      "lands": 6029,
      "address</w>": 6030,
      "cycl": 6031,
      "yards</w>": 6032,
      "tennis</w>": 6033,
      "element</w>": 6034,
      "starred</w>": 6035,
      "employment</w>": 6036,
      "humans</w>": 6037,
      "emed</w>": 6038,
      "strike</w>": 6039,
      "bach": 6040,
      "metro</w>": 6041,
      "symph": 6042,
      "municipalities</w>": 6043,
      "investigation</w>": 6044,
      "reality</w>": 6045,
      "nichol": 6046,
      "cbs</w>": 6047,
      "zen</w>": 6048,
      "aga</w>": 6049,
      "miss</w>": 6050,
      "crete</w>": 6051,
      "aviation</w>": 6052,
      "cau": 6053,
      "commonwealth</w>": 6054,
      "ku</w>": 6055,
      "taught</w>": 6056,
      "carto": 6057,
      "ministers</w>": 6058,
      "task</w>": 6059,
      "inhabit": 6060,
      "pc</w>": 6061,
      "nei": 6062,
      "printed</w>": 6063,
      "electro": 6064,
      "danish</w>": 6065,
      "colony</w>": 6066,
      "kshire</w>": 6067,
      "tested</w>": 6068,
      "walls</w>": 6069,
      "1908</w>": 6070,
      "flat</w>": 6071,
      "instruments</w>": 6072,
      "natur": 6073,
      "issance</w>": 6074,
      "moscow</w>": 6075,
      "recru": 6076,
      "decade</w>": 6077,
      "ment": 6078,
      "iced</w>": 6079,
      "colleges</w>": 6080,
      "straight</w>": 6081,
      "vas": 6082,
      "amendment</w>": 6083,
      "observed</w>": 6084,
      "frederick</w>": 6085,
      "nee</w>": 6086,
      "factors</w>": 6087,
      "tings</w>": 6088,
      "electoral</w>": 6089,
      "sky": 6090,
      "tment</w>": 6091,
      "path": 6092,
      "answ": 6093,
      "expatri": 6094,
      "esting</w>": 6095,
      "sk</w>": 6096,
      "wheel</w>": 6097,
      "bronze</w>": 6098,
      "statement</w>": 6099,
      "eties</w>": 6100,
      "turkish</w>": 6101,
      "150</w>": 6102,
      "ith": 6103,
      "gists</w>": 6104,
      "aw</w>": 6105,
      "1911</w>": 6106,
      "eous</w>": 6107,
      "aissance</w>": 6108,
      "bottom</w>": 6109,
      "montre": 6110,
      "baron</w>": 6111,
      "criticism</w>": 6112,
      "cards</w>": 6113,
      "spirit</w>": 6114,
      "neighborhood</w>": 6115,
      "uss</w>": 6116,
      "territories</w>": 6117,
      "umb": 6118,
      "contrast</w>": 6119,
      "stol</w>": 6120,
      "tells</w>": 6121,
      "homes</w>": 6122,
      "counc": 6123,
      "survey</w>": 6124,
      "represent</w>": 6125,
      "persons</w>": 6126,
      "dule</w>": 6127,
      "kev": 6128,
      "colonel</w>": 6129,
      "passengers</w>": 6130,
      "cathedral</w>": 6131,
      "600</w>": 6132,
      "brief</w>": 6133,
      "faces</w>": 6134,
      "universe</w>": 6135,
      "hurric": 6136,
      "bic": 6137,
      "fen": 6138,
      "tank</w>": 6139,
      "save</w>": 6140,
      "abc</w>": 6141,
      "confeder": 6142,
      "gin</w>": 6143,
      "broadway</w>": 6144,
      "revolutionary</w>": 6145,
      "russell</w>": 6146,
      "partner</w>": 6147,
      "1930s</w>": 6148,
      "arab</w>": 6149,
      "cha": 6150,
      "calls</w>": 6151,
      "closely</w>": 6152,
      "samuel</w>": 6153,
      "sub</w>": 6154,
      "underground</w>": 6155,
      "affected</w>": 6156,
      "tests</w>": 6157,
      "mode</w>": 6158,
      "inging</w>": 6159,
      "ltd</w>": 6160,
      "ody</w>": 6161,
      "atom": 6162,
      "laid</w>": 6163,
      "stable</w>": 6164,
      "brook": 6165,
      "aire</w>": 6166,
      "knight</w>": 6167,
      "warri": 6168,
      "quarter": 6169,
      "emergency</w>": 6170,
      "restor": 6171,
      "protect</w>": 6172,
      "bol</w>": 6173,
      "arizona</w>": 6174,
      "fixed</w>": 6175,
      "critici": 6176,
      "harvard</w>": 6177,
      "reserv": 6178,
      "bach</w>": 6179,
      "ech": 6180,
      "gium</w>": 6181,
      "liqu": 6182,
      "innov": 6183,
      "distinguished</w>": 6184,
      "missed</w>": 6185,
      "cler": 6186,
      "painter</w>": 6187,
      "iring</w>": 6188,
      "superi": 6189,
      "0th</w>": 6190,
      "finish</w>": 6191,
      "actual</w>": 6192,
      "consisting</w>": 6193,
      "mar</w>": 6194,
      "briefly</w>": 6195,
      "easily</w>": 6196,
      "contributed</w>": 6197,
      "budget</w>": 6198,
      "spirit": 6199,
      "ec</w>": 6200,
      "registered</w>": 6201,
      "frame</w>": 6202,
      "ecting</w>": 6203,
      "bet</w>": 6204,
      "gordon</w>": 6205,
      "spoken</w>": 6206,
      "reduce</w>": 6207,
      "xi</w>": 6208,
      "irs</w>": 6209,
      "developing</w>": 6210,
      "prising</w>": 6211,
      "scheduled</w>": 6212,
      "lincoln</w>": 6213,
      "ege</w>": 6214,
      "eling</w>": 6215,
      "wine</w>": 6216,
      "waters</w>": 6217,
      "saur": 6218,
      "walker</w>": 6219,
      "gur": 6220,
      "wins</w>": 6221,
      "rated</w>": 6222,
      "extra</w>": 6223,
      "importance</w>": 6224,
      "khan</w>": 6225,
      "describes</w>": 6226,
      "collected</w>": 6227,
      "cryst": 6228,
      "kom": 6229,
      "allied</w>": 6230,
      "institution</w>": 6231,
      "lists</w>": 6232,
      "dden</w>": 6233,
      "apo": 6234,
      "goods</w>": 6235,
      "eyes</w>": 6236,
      "require</w>": 6237,
      "rolling</w>": 6238,
      "mississi": 6239,
      "salt</w>": 6240,
      "graduated</w>": 6241,
      "installed</w>": 6242,
      "arist</w>": 6243,
      "constant</w>": 6244,
      "1906</w>": 6245,
      "coal</w>": 6246,
      "ester": 6247,
      "receiving</w>": 6248,
      "aa</w>": 6249,
      "consisted</w>": 6250,
      "circum": 6251,
      "rup": 6252,
      "vis</w>": 6253,
      "welsh</w>": 6254,
      "insi": 6255,
      "portugal</w>": 6256,
      "diam": 6257,
      "zerland</w>": 6258,
      "mining</w>": 6259,
      "advantage</w>": 6260,
      "scoring</w>": 6261,
      "session</w>": 6262,
      "rio</w>": 6263,
      "courts</w>": 6264,
      "improv": 6265,
      "switzerland</w>": 6266,
      "bra</w>": 6267,
      "ired</w>": 6268,
      "berry</w>": 6269,
      "anthony</w>": 6270,
      "operates</w>": 6271,
      "establish</w>": 6272,
      "measure</w>": 6273,
      "inhabitants</w>": 6274,
      "leon": 6275,
      "una</w>": 6276,
      "biograph": 6277,
      "gardens</w>": 6278,
      "disney</w>": 6279,
      "denmark</w>": 6280,
      "artill": 6281,
      "dit": 6282,
      "ello</w>": 6283,
      "lag": 6284,
      "1905</w>": 6285,
      "christo": 6286,
      "discipl": 6287,
      "distinct</w>": 6288,
      "oreg": 6289,
      "shak": 6290,
      "cable</w>": 6291,
      "gang</w>": 6292,
      "homa</w>": 6293,
      "din</w>": 6294,
      "ij": 6295,
      "extrem": 6296,
      "nap": 6297,
      "ori</w>": 6298,
      "pear": 6299,
      "architect</w>": 6300,
      "focused</w>": 6301,
      "difference</w>": 6302,
      "montreal</w>": 6303,
      "zing</w>": 6304,
      "rant</w>": 6305,
      "isol": 6306,
      "expedition</w>": 6307,
      "pattern</w>": 6308,
      "explor": 6309,
      "funding</w>": 6310,
      "archive</w>": 6311,
      "armen": 6312,
      "diego</w>": 6313,
      "chann": 6314,
      "satis": 6315,
      "peninsula</w>": 6316,
      "indigenous</w>": 6317,
      "elle</w>": 6318,
      "organisation</w>": 6319,
      "carl</w>": 6320,
      "tag": 6321,
      "poems</w>": 6322,
      "relative</w>": 6323,
      "therap": 6324,
      "depending</w>": 6325,
      "markets</w>": 6326,
      "terr": 6327,
      "lawrence</w>": 6328,
      "mississippi</w>": 6329,
      "sport": 6330,
      "thic</w>": 6331,
      "gle</w>": 6332,
      "ance": 6333,
      "ambas": 6334,
      "details</w>": 6335,
      "err": 6336,
      "bond</w>": 6337,
      "selection</w>": 6338,
      "powered</w>": 6339,
      "gone</w>": 6340,
      "maur": 6341,
      "vene": 6342,
      "medium</w>": 6343,
      "calling</w>": 6344,
      "absor": 6345,
      "pet</w>": 6346,
      "emig": 6347,
      "boar": 6348,
      "eria</w>": 6349,
      "stress</w>": 6350,
      "orph": 6351,
      "dall": 6352,
      "opposite</w>": 6353,
      "tant</w>": 6354,
      "aggre": 6355,
      "duty</w>": 6356,
      "bear</w>": 6357,
      "popularity</w>": 6358,
      "cran": 6359,
      "filled</w>": 6360,
      "outstanding</w>": 6361,
      "artillery</w>": 6362,
      "ambassad": 6363,
      "backing</w>": 6364,
      "heim</w>": 6365,
      "songwriter</w>": 6366,
      "okla": 6367,
      "bling</w>": 6368,
      "gather": 6369,
      "employees</w>": 6370,
      "diagno": 6371,
      "io": 6372,
      "skin</w>": 6373,
      "matthe": 6374,
      "involving</w>": 6375,
      "afgh": 6376,
      "col</w>": 6377,
      "evening</w>": 6378,
      "purchase</w>": 6379,
      "puer": 6380,
      "juan</w>": 6381,
      "bapti": 6382,
      "rix</w>": 6383,
      "argum": 6384,
      "orthodox</w>": 6385,
      "repl": 6386,
      "fashion</w>": 6387,
      "promotion</w>": 6388,
      "poem</w>": 6389,
      "reaching</w>": 6390,
      "designs</w>": 6391,
      "baby</w>": 6392,
      "technique</w>": 6393,
      "tica</w>": 6394,
      "tre</w>": 6395,
      "legend</w>": 6396,
      "moore</w>": 6397,
      "oklahoma</w>": 6398,
      "server</w>": 6399,
      "gram": 6400,
      "maintain</w>": 6401,
      "gat": 6402,
      "conven": 6403,
      "gho": 6404,
      "deleg": 6405,
      "seventh</w>": 6406,
      "collap": 6407,
      "coastal</w>": 6408,
      "nin": 6409,
      "really</w>": 6410,
      "destruc": 6411,
      "aining</w>": 6412,
      "did": 6413,
      "trying</w>": 6414,
      "eau</w>": 6415,
      "1907</w>": 6416,
      "watch</w>": 6417,
      "representing</w>": 6418,
      "otherwise</w>": 6419,
      "hill": 6420,
      "ceremony</w>": 6421,
      "vices</w>": 6422,
      "footballers</w>": 6423,
      "capita</w>": 6424,
      "dream</w>": 6425,
      "investment</w>": 6426,
      "jav": 6427,
      "scar": 6428,
      "child": 6429,
      "classification</w>": 6430,
      "excell": 6431,
      "dos</w>": 6432,
      "instance</w>": 6433,
      "bruce</w>": 6434,
      "degrees</w>": 6435,
      "plate</w>": 6436,
      "documents</w>": 6437,
      "eo</w>": 6438,
      "tage</w>": 6439,
      "czech</w>": 6440,
      "bow</w>": 6441,
      "concep": 6442,
      "austrian</w>": 6443,
      "shop": 6444,
      "oregon</w>": 6445,
      "raine</w>": 6446,
      "flag": 6447,
      "navig": 6448,
      "chapel</w>": 6449,
      "patients</w>": 6450,
      "pot": 6451,
      "solid</w>": 6452,
      "ticut</w>": 6453,
      "differences</w>": 6454,
      "rejected</w>": 6455,
      "frequency</w>": 6456,
      "wer": 6457,
      "golf</w>": 6458,
      "tunnel</w>": 6459,
      "diary</w>": 6460,
      "liver": 6461,
      "connecticut</w>": 6462,
      "stock": 6463,
      "tokyo</w>": 6464,
      "owa</w>": 6465,
      "herself</w>": 6466,
      "funds</w>": 6467,
      "dying</w>": 6468,
      "wich</w>": 6469,
      "turkey</w>": 6470,
      "formally</w>": 6471,
      "demand</w>": 6472,
      "scheme</w>": 6473,
      "fusion</w>": 6474,
      "mac</w>": 6475,
      "resigned</w>": 6476,
      "1909</w>": 6477,
      "gulf</w>": 6478,
      "additionally</w>": 6479,
      "shi</w>": 6480,
      "org</w>": 6481,
      "nate</w>": 6482,
      "controvers": 6483,
      "250</w>": 6484,
      "sanc": 6485,
      "pur</w>": 6486,
      "salv": 6487,
      "controversy</w>": 6488,
      "ray": 6489,
      "hair</w>": 6490,
      "alabama</w>": 6491,
      "guitarist</w>": 6492,
      "exhibition</w>": 6493,
      "tedly</w>": 6494,
      "gom": 6495,
      "credit</w>": 6496,
      "1901</w>": 6497,
      "esh</w>": 6498,
      "residence</w>": 6499,
      "grave</w>": 6500,
      "brazilian</w>": 6501,
      "carbon</w>": 6502,
      "stands</w>": 6503,
      "ush</w>": 6504,
      "lying</w>": 6505,
      "pedia</w>": 6506,
      "jet</w>": 6507,
      "dave</w>": 6508,
      "mounted</w>": 6509,
      "aming</w>": 6510,
      "vege": 6511,
      "boundary</w>": 6512,
      "surve": 6513,
      "tox": 6514,
      "palest": 6515,
      "treati": 6516,
      "nazi</w>": 6517,
      "bren": 6518,
      "mps</w>": 6519,
      "mail</w>": 6520,
      "allel</w>": 6521,
      "wear</w>": 6522,
      "behavior</w>": 6523,
      "ield</w>": 6524,
      "finance</w>": 6525,
      "solu": 6526,
      "constitutional</w>": 6527,
      "ral": 6528,
      "birth": 6529,
      "papers</w>": 6530,
      "parallel</w>": 6531,
      "lyn</w>": 6532,
      "emor": 6533,
      "rap</w>": 6534,
      "testing</w>": 6535,
      "antonio</w>": 6536,
      "dt</w>": 6537,
      "dating</w>": 6538,
      "valu": 6539,
      "good": 6540,
      "ges": 6541,
      "capable</w>": 6542,
      "context</w>": 6543,
      "graphic</w>": 6544,
      "components</w>": 6545,
      "collins</w>": 6546,
      "coali": 6547,
      "legislat": 6548,
      "bot</w>": 6549,
      "ero</w>": 6550,
      "stages</w>": 6551,
      "enz": 6552,
      "wart</w>": 6553,
      "christopher</w>": 6554,
      "mark": 6555,
      "missions</w>": 6556,
      "chronic": 6557,
      "custo": 6558,
      "significantly</w>": 6559,
      "pitts": 6560,
      "6d": 6561,
      "socialist</w>": 6562,
      "izing</w>": 6563,
      "ologies</w>": 6564,
      "akers</w>": 6565,
      "crossing</w>": 6566,
      "hired</w>": 6567,
      "defunc": 6568,
      "gan": 6569,
      "andy</w>": 6570,
      "louisi": 6571,
      "franchise</w>": 6572,
      "distributed</w>": 6573,
      "rum": 6574,
      "costs</w>": 6575,
      "joining</w>": 6576,
      "purposes</w>": 6577,
      "kennedy</w>": 6578,
      "dev": 6579,
      "understanding</w>": 6580,
      "defunct</w>": 6581,
      "athletics</w>": 6582,
      "trip</w>": 6583,
      "policies</w>": 6584,
      "conservation</w>": 6585,
      "diocese</w>": 6586,
      "attorney</w>": 6587,
      "capture</w>": 6588,
      "belgium</w>": 6589,
      "venues</w>": 6590,
      "divor": 6591,
      "chance</w>": 6592,
      "treated</w>": 6593,
      "vul": 6594,
      "fishing</w>": 6595,
      "consecu": 6596,
      "puerto</w>": 6597,
      "nba</w>": 6598,
      "esis</w>": 6599,
      "colom": 6600,
      "seas</w>": 6601,
      "sum</w>": 6602,
      "vity</w>": 6603,
      "nbc</w>": 6604,
      "bean</w>": 6605,
      "businesses</w>": 6606,
      "myth": 6607,
      "neutr": 6608,
      "prohi": 6609,
      "flan": 6610,
      "mal</w>": 6611,
      "isation</w>": 6612,
      "1903</w>": 6613,
      "owners</w>": 6614,
      "louisiana</w>": 6615,
      "singing</w>": 6616,
      "lingu": 6617,
      "vali": 6618,
      "origins</w>": 6619,
      "measures</w>": 6620,
      "amph": 6621,
      "was": 6622,
      "items</w>": 6623,
      "2000s</w>": 6624,
      "ored</w>": 6625,
      "historians</w>": 6626,
      "successor</w>": 6627,
      "bits</w>": 6628,
      "kl": 6629,
      "margaret</w>": 6630,
      "titude</w>": 6631,
      "aci": 6632,
      "eva</w>": 6633,
      "dering</w>": 6634,
      "stic": 6635,
      "devices</w>": 6636,
      "modified</w>": 6637,
      "sas": 6638,
      "entrance</w>": 6639,
      "800</w>": 6640,
      "lakes</w>": 6641,
      "kent</w>": 6642,
      "igh</w>": 6643,
      "apple</w>": 6644,
      "inspec": 6645,
      "consequ": 6646,
      "portrayed</w>": 6647,
      "requires</w>": 6648,
      "progressive</w>": 6649,
      "ficial</w>": 6650,
      "priest</w>": 6651,
      "neuro": 6652,
      "opportunity</w>": 6653,
      "cancell": 6654,
      "harris</w>": 6655,
      "leads</w>": 6656,
      "compilation</w>": 6657,
      "authors</w>": 6658,
      "campaig": 6659,
      "thousands</w>": 6660,
      "plain</w>": 6661,
      "immig": 6662,
      "bene": 6663,
      "astern</w>": 6664,
      "ules</w>": 6665,
      "queens": 6666,
      "relation</w>": 6667,
      "desc": 6668,
      "stanley</w>": 6669,
      "pants</w>": 6670,
      "signs</w>": 6671,
      "outs</w>": 6672,
      "listing</w>": 6673,
      "improve</w>": 6674,
      "respect</w>": 6675,
      "shir": 6676,
      "liv": 6677,
      "molec": 6678,
      "rapid</w>": 6679,
      "separated</w>": 6680,
      "pierre</w>": 6681,
      "roughly</w>": 6682,
      "gray</w>": 6683,
      "hang": 6684,
      "barbar": 6685,
      "sche": 6686,
      "alexand": 6687,
      "satellite</w>": 6688,
      "1902</w>": 6689,
      "prisoners</w>": 6690,
      "kra": 6691,
      "tivity</w>": 6692,
      "gay</w>": 6693,
      "adams</w>": 6694,
      "attached</w>": 6695,
      "consci": 6696,
      "thetic</w>": 6697,
      "johnny</w>": 6698,
      "ough": 6699,
      "limit</w>": 6700,
      "abbey</w>": 6701,
      "promote</w>": 6702,
      "channels</w>": 6703,
      "ns": 6704,
      "driving</w>": 6705,
      "gm": 6706,
      "decline</w>": 6707,
      "fit</w>": 6708,
      "femin": 6709,
      "1904</w>": 6710,
      "theastern</w>": 6711,
      "charges</w>": 6712,
      "israeli</w>": 6713,
      "getting</w>": 6714,
      "profit</w>": 6715,
      "13th</w>": 6716,
      "matt": 6717,
      "veland</w>": 6718,
      "angel</w>": 6719,
      "buc": 6720,
      "fired</w>": 6721,
      "saints</w>": 6722,
      "12th</w>": 6723,
      "dick</w>": 6724,
      "mitch": 6725,
      "hai</w>": 6726,
      "hein": 6727,
      "horiz": 6728,
      "acre</w>": 6729,
      "proper</w>": 6730,
      "soundtrack</w>": 6731,
      "replace</w>": 6732,
      "diction</w>": 6733,
      "extremely</w>": 6734,
      "eval": 6735,
      "miami</w>": 6736,
      "drivers</w>": 6737,
      "resolution</w>": 6738,
      "nick</w>": 6739,
      "accom": 6740,
      "ulated</w>": 6741,
      "severe</w>": 6742,
      "composers</w>": 6743,
      "juris": 6744,
      "spective</w>": 6745,
      "journey</w>": 6746,
      "lawyer</w>": 6747,
      "cool": 6748,
      "robin": 6749,
      "coalition</w>": 6750,
      "iser</w>": 6751,
      "seems</w>": 6752,
      "grey</w>": 6753,
      "rol</w>": 6754,
      "experienced</w>": 6755,
      "truth</w>": 6756,
      "hampshire</w>": 6757,
      "regularly</w>": 6758,
      "icide</w>": 6759,
      "vocal</w>": 6760,
      "lay</w>": 6761,
      "business": 6762,
      "honorary</w>": 6763,
      "edin": 6764,
      "franklin</w>": 6765,
      "pleas": 6766,
      "leans</w>": 6767,
      "arn": 6768,
      "commemor": 6769,
      "holid": 6770,
      "resem": 6771,
      "hes": 6772,
      "midd": 6773,
      "mathematics</w>": 6774,
      "onian</w>": 6775,
      "producers</w>": 6776,
      "consecutive</w>": 6777,
      "billy</w>": 6778,
      "mills</w>": 6779,
      "changing</w>": 6780,
      "scientists</w>": 6781,
      "hungarian</w>": 6782,
      "tube</w>": 6783,
      "eli": 6784,
      "request</w>": 6785,
      "occasionally</w>": 6786,
      "ake</w>": 6787,
      "oth</w>": 6788,
      "chro": 6789,
      "earth": 6790,
      "slov": 6791,
      "ounded</w>": 6792,
      "ado": 6793,
      "charter</w>": 6794,
      "economics</w>": 6795,
      "catal": 6796,
      "progress</w>": 6797,
      "heal": 6798,
      "apart</w>": 6799,
      "asingly</w>": 6800,
      "simpl": 6801,
      "morgan</w>": 6802,
      "mechanical</w>": 6803,
      "dragon</w>": 6804,
      "adam</w>": 6805,
      "roots</w>": 6806,
      "easy</w>": 6807,
      "ye</w>": 6808,
      "mers</w>": 6809,
      "springs</w>": 6810,
      "maine</w>": 6811,
      "dep": 6812,
      "increasingly</w>": 6813,
      "encyclo": 6814,
      "leagues</w>": 6815,
      "escap": 6816,
      "broad</w>": 6817,
      "ford": 6818,
      "prix</w>": 6819,
      "accused</w>": 6820,
      "alo</w>": 6821,
      "movements</w>": 6822,
      "kevin</w>": 6823,
      "stones</w>": 6824,
      "storage</w>": 6825,
      "courses</w>": 6826,
      "suggests</w>": 6827,
      "restored</w>": 6828,
      "finds</w>": 6829,
      "nett</w>": 6830,
      "norman</w>": 6831,
      "engineers</w>": 6832,
      "legislation</w>": 6833,
      "strategy</w>": 6834,
      "camera</w>": 6835,
      "showing</w>": 6836,
      "mah": 6837,
      "richmond</w>": 6838,
      "ride</w>": 6839,
      "seu": 6840,
      "tourism</w>": 6841,
      "executed</w>": 6842,
      "utili": 6843,
      "jective</w>": 6844,
      "ua</w>": 6845,
      "atmo": 6846,
      "skills</w>": 6847,
      "depression</w>": 6848,
      "ranking</w>": 6849,
      "worn</w>": 6850,
      "tees</w>": 6851,
      "argentina</w>": 6852,
      "alg": 6853,
      "adul": 6854,
      "membership</w>": 6855,
      "aver": 6856,
      "mrs</w>": 6857,
      "retained</w>": 6858,
      "bie</w>": 6859,
      "delivered</w>": 6860,
      "allies</w>": 6861,
      "interests</w>": 6862,
      "kaz": 6863,
      "night": 6864,
      "ratio</w>": 6865,
      "stating</w>": 6866,
      "ttle</w>": 6867,
      "dublin</w>": 6868,
      "ported</w>": 6869,
      "giant</w>": 6870,
      "output</w>": 6871,
      "medalists</w>": 6872,
      "vien": 6873,
      "adventure</w>": 6874,
      "classified</w>": 6875,
      "protein</w>": 6876,
      "iv": 6877,
      "edinburgh</w>": 6878,
      "public": 6879,
      "beauti": 6880,
      "hungary</w>": 6881,
      "www</w>": 6882,
      "cleveland</w>": 6883,
      "shooting</w>": 6884,
      "fis": 6885,
      "bak": 6886,
      "ownership</w>": 6887,
      "ahead</w>": 6888,
      "bible</w>": 6889,
      "home": 6890,
      "transit</w>": 6891,
      "hatt": 6892,
      "processing</w>": 6893,
      "whereas</w>": 6894,
      "hyper": 6895,
      "partnership</w>": 6896,
      "oxy": 6897,
      "concluded</w>": 6898,
      "osc": 6899,
      "linked</w>": 6900,
      "eived</w>": 6901,
      "aero": 6902,
      "oak": 6903,
      "cost": 6904,
      "networks</w>": 6905,
      "jum": 6906,
      "dak": 6907,
      "debate</w>": 6908,
      "adding</w>": 6909,
      "iowa</w>": 6910,
      "apolis</w>": 6911,
      "orleans</w>": 6912,
      "chose</w>": 6913,
      "carrying</w>": 6914,
      "tta</w>": 6915,
      "15th</w>": 6916,
      "assistance</w>": 6917,
      "oon</w>": 6918,
      "movies</w>": 6919,
      "adaptation</w>": 6920,
      "bos": 6921,
      "brook</w>": 6922,
      "bachel": 6923,
      "10th</w>": 6924,
      "jane</w>": 6925,
      "east": 6926,
      "tourist</w>": 6927,
      "har</w>": 6928,
      "dallas</w>": 6929,
      "soldier</w>": 6930,
      "spot</w>": 6931,
      "seconds</w>": 6932,
      "normally</w>": 6933,
      "ser</w>": 6934,
      "warren</w>": 6935,
      "transmit": 6936,
      "occupation</w>": 6937,
      "alties</w>": 6938,
      "reputation</w>": 6939,
      "rem": 6940,
      "damaged</w>": 6941,
      "tah</w>": 6942,
      "solar</w>": 6943,
      "alogue</w>": 6944,
      "gery</w>": 6945,
      "industries</w>": 6946,
      "carrier</w>": 6947,
      "admiral</w>": 6948,
      "visitors</w>": 6949,
      "phosp": 6950,
      "sic": 6951,
      "seattle</w>": 6952,
      "contra": 6953,
      "variant</w>": 6954,
      "manus": 6955,
      "hosts</w>": 6956,
      "domain</w>": 6957,
      "newspapers</w>": 6958,
      "democracy</w>": 6959,
      "happy</w>": 6960,
      "recipients</w>": 6961,
      "mono": 6962,
      "liverpool</w>": 6963,
      "dna</w>": 6964,
      "gent</w>": 6965,
      "consider</w>": 6966,
      "victor</w>": 6967,
      "14th</w>": 6968,
      "pole</w>": 6969,
      "rever": 6970,
      "ancy</w>": 6971,
      "morph": 6972,
      "hurricane</w>": 6973,
      "sugar</w>": 6974,
      "bell": 6975,
      "appeal</w>": 6976,
      "shaped</w>": 6977,
      "drop</w>": 6978,
      "pittsburgh</w>": 6979,
      "tenance</w>": 6980,
      "styles</w>": 6981,
      "grove</w>": 6982,
      "keeping</w>": 6983,
      "message</w>": 6984,
      "autonom": 6985,
      "epi": 6986,
      "soil</w>": 6987,
      "practices</w>": 6988,
      "hunter</w>": 6989,
      "desert</w>": 6990,
      "gramm": 6991,
      "breaking</w>": 6992,
      "accompanied</w>": 6993,
      "more": 6994,
      "replacement</w>": 6995,
      "infl": 6996,
      "coo": 6997,
      "quan": 6998,
      "evolution</w>": 6999,
      "ude</w>": 7000,
      "weigh": 7001,
      "similarly</w>": 7002,
      "volcan": 7003,
      "caval": 7004,
      "index</w>": 7005,
      "offs</w>": 7006,
      "campbell</w>": 7007,
      "saturday</w>": 7008,
      "therine</w>": 7009,
      "governor": 7010,
      "taiwan</w>": 7011,
      "blin": 7012,
      "pot</w>": 7013,
      "horror</w>": 7014,
      "mingham</w>": 7015,
      "tism</w>": 7016,
      "historically</w>": 7017,
      "integrated</w>": 7018,
      "evil</w>": 7019,
      "stors</w>": 7020,
      "bid": 7021,
      "longest</w>": 7022,
      "finding</w>": 7023,
      "atically</w>": 7024,
      "istry</w>": 7025,
      "jimmy</w>": 7026,
      "marie</w>": 7027,
      "napol": 7028,
      "amaz": 7029,
      "processes</w>": 7030,
      "inaug": 7031,
      "god": 7032,
      "hn</w>": 7033,
      "chant</w>": 7034,
      "representation</w>": 7035,
      "kan</w>": 7036,
      "transmission</w>": 7037,
      "contest</w>": 7038,
      "kelly</w>": 7039,
      "fellow": 7040,
      "tell</w>": 7041,
      "hole</w>": 7042,
      "residential</w>": 7043,
      "cook</w>": 7044,
      "operational</w>": 7045,
      "perfect</w>": 7046,
      "timore</w>": 7047,
      "ski": 7048,
      "push": 7049,
      "opinion</w>": 7050,
      "gaz": 7051,
      "infin": 7052,
      "cow": 7053,
      "threat</w>": 7054,
      "accounts</w>": 7055,
      "vere": 7056,
      "survived</w>": 7057,
      "safe</w>": 7058,
      "engaged</w>": 7059,
      "murray</w>": 7060,
      "manuscri": 7061,
      "responsibility</w>": 7062,
      "amateur</w>": 7063,
      "masters</w>": 7064,
      "deal": 7065,
      "determine</w>": 7066,
      "datab": 7067,
      "og</w>": 7068,
      "maintenance</w>": 7069,
      "cdp</w>": 7070,
      "ito</w>": 7071,
      "quanti": 7072,
      "honours</w>": 7073,
      "ameter</w>": 7074,
      "maker</w>": 7075,
      "turer</w>": 7076,
      "birmingham</w>": 7077,
      "intell": 7078,
      "slow": 7079,
      "declined</w>": 7080,
      "extreme</w>": 7081,
      "assumed</w>": 7082,
      "monarch": 7083,
      "relief</w>": 7084,
      "provinces</w>": 7085,
      "nell</w>": 7086,
      "peti": 7087,
      "number": 7088,
      "criticized</w>": 7089,
      "po</w>": 7090,
      "leg</w>": 7091,
      "somewhat</w>": 7092,
      "pseu": 7093,
      "nova</w>": 7094,
      "strip</w>": 7095,
      "dual</w>": 7096,
      "hammad</w>": 7097,
      "borne</w>": 7098,
      "carter</w>": 7099,
      "kru": 7100,
      "ato</w>": 7101,
      "aspects</w>": 7102,
      "conduct</w>": 7103,
      "offensive</w>": 7104,
      "steam</w>": 7105,
      "marshall</w>": 7106,
      "teachers</w>": 7107,
      "neither</w>": 7108,
      "usage</w>": 7109,
      "aj": 7110,
      "cited</w>": 7111,
      "tone</w>": 7112,
      "coaches</w>": 7113,
      "gates</w>": 7114,
      "eagle</w>": 7115,
      "alice</w>": 7116,
      "warner</w>": 7117,
      "pen</w>": 7118,
      "baltimore</w>": 7119,
      "temporary</w>": 7120,
      "chemistry</w>": 7121,
      "fried": 7122,
      "stopped</w>": 7123,
      "ds": 7124,
      "oir</w>": 7125,
      "organic</w>": 7126,
      "managers</w>": 7127,
      "collections</w>": 7128,
      "supporters</w>": 7129,
      "atlanta</w>": 7130,
      "throne</w>": 7131,
      "boats</w>": 7132,
      "painted</w>": 7133,
      "alfred</w>": 7134,
      "ordinary</w>": 7135,
      "judic": 7136,
      "tribe</w>": 7137,
      "treat</w>": 7138,
      "inher": 7139,
      "confi": 7140,
      "critic</w>": 7141,
      "indicate</w>": 7142,
      "declar": 7143,
      "onym": 7144,
      "everything</w>": 7145,
      "subjects</w>": 7146,
      "eon</w>": 7147,
      "lux": 7148,
      "gas": 7149,
      "grown</w>": 7150,
      "robinson</w>": 7151,
      "experimental</w>": 7152,
      "riding</w>": 7153,
      "christian": 7154,
      "plant": 7155,
      "hart</w>": 7156,
      "trained</w>": 7157,
      "monument</w>": 7158,
      "scholar</w>": 7159,
      "gosla": 7160,
      "correct</w>": 7161,
      "cm</w>": 7162,
      "phenom": 7163,
      "apart": 7164,
      "marvel</w>": 7165,
      "trophy</w>": 7166,
      "con</w>": 7167,
      "obli": 7168,
      "renov": 7169,
      "barri": 7170,
      "1898</w>": 7171,
      "athletic</w>": 7172,
      "bridges</w>": 7173,
      "stati": 7174,
      "biggest</w>": 7175,
      "das</w>": 7176,
      "hr": 7177,
      "hs</w>": 7178,
      "concerns</w>": 7179,
      "prus": 7180,
      "learned</w>": 7181,
      "symphony</w>": 7182,
      "restoration</w>": 7183,
      "corporate</w>": 7184,
      "lic</w>": 7185,
      "genre</w>": 7186,
      "rid</w>": 7187,
      "stewart</w>": 7188,
      "jeff</w>": 7189,
      "strongly</w>": 7190,
      "isms</w>": 7191,
      "duties</w>": 7192,
      "nelson</w>": 7193,
      "invited</w>": 7194,
      "bachelor</w>": 7195,
      "athan</w>": 7196,
      "dir": 7197,
      "substitu": 7198,
      "oral</w>": 7199,
      "prepared</w>": 7200,
      "anch": 7201,
      "filmed</w>": 7202,
      "inju": 7203,
      "traditionally</w>": 7204,
      "rating</w>": 7205,
      "sri</w>": 7206,
      "questions</w>": 7207,
      "1890</w>": 7208,
      "residing</w>": 7209,
      "monaster": 7210,
      "agents</w>": 7211,
      "trading</w>": 7212,
      "option</w>": 7213,
      "paintings</w>": 7214,
      "arrival</w>": 7215,
      "accident</w>": 7216,
      "influential</w>": 7217,
      "committed</w>": 7218,
      "electrical</w>": 7219,
      "kas": 7220,
      "ley": 7221,
      "surren": 7222,
      "lap": 7223,
      "guy</w>": 7224,
      "kim</w>": 7225,
      "clou": 7226,
      "oper</w>": 7227,
      "glas": 7228,
      "eters</w>": 7229,
      "glen": 7230,
      "arranged</w>": 7231,
      "barry</w>": 7232,
      "tract</w>": 7233,
      "brew</w>": 7234,
      "starts</w>": 7235,
      "nad": 7236,
      "yugosla": 7237,
      "nationally</w>": 7238,
      "magnetic</w>": 7239,
      "didn</w>": 7240,
      "centers</w>": 7241,
      "queensland</w>": 7242,
      "rical</w>": 7243,
      "ibn</w>": 7244,
      "instrument</w>": 7245,
      "cous": 7246,
      "cross": 7247,
      "tempor": 7248,
      "inal</w>": 7249,
      "massive</w>": 7250,
      "fish": 7251,
      "dil": 7252,
      "tools</w>": 7253,
      "1896</w>": 7254,
      "sisters</w>": 7255,
      "infrastructure</w>": 7256,
      "poets</w>": 7257,
      "pitch</w>": 7258,
      "wides": 7259,
      "animation</w>": 7260,
      "ading</w>": 7261,
      "files</w>": 7262,
      "texts</w>": 7263,
      "principle</w>": 7264,
      "turn": 7265,
      "beautiful</w>": 7266,
      "continuous</w>": 7267,
      "thousand</w>": 7268,
      "sufficient</w>": 7269,
      "passage</w>": 7270,
      "symbol</w>": 7271,
      "tons</w>": 7272,
      "leban": 7273,
      "exists</w>": 7274,
      "peo": 7275,
      "anglo</w>": 7276,
      "rock": 7277,
      "prehen": 7278,
      "homo": 7279,
      "appearing</w>": 7280,
      "contributions</w>": 7281,
      "afterwards</w>": 7282,
      "descend": 7283,
      "driven</w>": 7284,
      "prises</w>": 7285,
      "phon": 7286,
      "drin": 7287,
      "radar</w>": 7288,
      "continuing</w>": 7289,
      "uncle</w>": 7290,
      "speak</w>": 7291,
      "pts</w>": 7292,
      "alled</w>": 7293,
      "eae</w>": 7294,
      "idly</w>": 7295,
      "rising</w>": 7296,
      "calend": 7297,
      "shaw</w>": 7298,
      "expatriate</w>": 7299,
      "adventures</w>": 7300,
      "celebrated</w>": 7301,
      "equipped</w>": 7302,
      "acquisi": 7303,
      "offering</w>": 7304,
      "honour</w>": 7305,
      "appointment</w>": 7306,
      "visible</w>": 7307,
      "editions</w>": 7308,
      "maps</w>": 7309,
      "shops</w>": 7310,
      "ms": 7311,
      "coat</w>": 7312,
      "tea</w>": 7313,
      "thur": 7314,
      "populations</w>": 7315,
      "restaurant</w>": 7316,
      "fur</w>": 7317,
      "squad</w>": 7318,
      "never": 7319,
      "sensi": 7320,
      "1895</w>": 7321,
      "ev</w>": 7322,
      "jobs</w>": 7323,
      "rico</w>": 7324,
      "ag</w>": 7325,
      "fundam": 7326,
      "tales</w>": 7327,
      "eline</w>": 7328,
      "torate</w>": 7329,
      "etary</w>": 7330,
      "river": 7331,
      "caught</w>": 7332,
      "asser": 7333,
      "wel</w>": 7334,
      "heroes</w>": 7335,
      "requirements</w>": 7336,
      "governments</w>": 7337,
      "1899</w>": 7338,
      "manner</w>": 7339,
      "hol</w>": 7340,
      "ador</w>": 7341,
      "snow</w>": 7342,
      "finland</w>": 7343,
      "magazines</w>": 7344,
      "innings</w>": 7345,
      "comment": 7346,
      "1920s</w>": 7347,
      "thompson</w>": 7348,
      "neighbour": 7349,
      "characteristics</w>": 7350,
      "drawing</w>": 7351,
      "considerable</w>": 7352,
      "pig": 7353,
      "commerce</w>": 7354,
      "describe</w>": 7355,
      "ci</w>": 7356,
      "ks": 7357,
      "atus</w>": 7358,
      "represents</w>": 7359,
      "horses</w>": 7360,
      "returns</w>": 7361,
      "superior</w>": 7362,
      "rescue</w>": 7363,
      "coff": 7364,
      "astro": 7365,
      "sportspeople</w>": 7366,
      "cash</w>": 7367,
      "minimum</w>": 7368,
      "sored</w>": 7369,
      "principles</w>": 7370,
      "dominant</w>": 7371,
      "expression</w>": 7372,
      "orro</w>": 7373,
      "recur": 7374,
      "ryan</w>": 7375,
      "laboratory</w>": 7376,
      "controversial</w>": 7377,
      "cal</w>": 7378,
      "pharm": 7379,
      "cavalry</w>": 7380,
      "terror": 7381,
      "missile</w>": 7382,
      "benefit</w>": 7383,
      "constituency</w>": 7384,
      "gow</w>": 7385,
      "accompl": 7386,
      "creative</w>": 7387,
      "huge</w>": 7388,
      "spiritual</w>": 7389,
      "matthew</w>": 7390,
      "bomb</w>": 7391,
      "peoples</w>": 7392,
      "petro": 7393,
      "explained</w>": 7394,
      "nish</w>": 7395,
      "trum": 7396,
      "yon</w>": 7397,
      "feel</w>": 7398,
      "cryp": 7399,
      "branches</w>": 7400,
      "expos": 7401,
      "cinema</w>": 7402,
      "mort": 7403,
      "morris</w>": 7404,
      "arkansas</w>": 7405,
      "ele</w>": 7406,
      "ambi": 7407,
      "figur": 7408,
      "injured</w>": 7409,
      "coverage</w>": 7410,
      "insurance</w>": 7411,
      "rh": 7412,
      "hospit": 7413,
      "belief</w>": 7414,
      "column</w>": 7415,
      "effectively</w>": 7416,
      "shopping</w>": 7417,
      "ei</w>": 7418,
      "knights</w>": 7419,
      "uma</w>": 7420,
      "essential</w>": 7421,
      "vement</w>": 7422,
      "fefe": 7423,
      "math</w>": 7424,
      "helic": 7425,
      "meanwhile</w>": 7426,
      "kun": 7427,
      "turns</w>": 7428,
      "guid": 7429,
      "mission": 7430,
      "dant</w>": 7431,
      "mir</w>": 7432,
      "settlers</w>": 7433,
      "voiced</w>": 7434,
      "swimming</w>": 7435,
      "invent": 7436,
      "matrix</w>": 7437,
      "show": 7438,
      "buddhist</w>": 7439,
      "weapon</w>": 7440,
      "enfor": 7441,
      "alex</w>": 7442,
      "personality</w>": 7443,
      "ob</w>": 7444,
      "islam</w>": 7445,
      "instrumental</w>": 7446,
      "aks</w>": 7447,
      "conventi": 7448,
      "ambassador</w>": 7449,
      "ati</w>": 7450,
      "zy</w>": 7451,
      "percus": 7452,
      "victim": 7453,
      "chel": 7454,
      "embar": 7455,
      "ensure</w>": 7456,
      "anything</w>": 7457,
      "swi": 7458,
      "tribes</w>": 7459,
      "destruction</w>": 7460,
      "paul": 7461,
      "transition</w>": 7462,
      "revival</w>": 7463,
      "stim": 7464,
      "defensive</w>": 7465,
      "legislature</w>": 7466,
      "resident</w>": 7467,
      "strategic</w>": 7468,
      "jay</w>": 7469,
      "belgian</w>": 7470,
      "hawa": 7471,
      "grades</w>": 7472,
      "romania</w>": 7473,
      "genetic</w>": 7474,
      "bat</w>": 7475,
      "philli": 7476,
      "arabic</w>": 7477,
      "volumes</w>": 7478,
      "send</w>": 7479,
      "indians</w>": 7480,
      "praised</w>": 7481,
      "wayne</w>": 7482,
      "intellec": 7483,
      "aux</w>": 7484,
      "story": 7485,
      "daughters</w>": 7486,
      "attend</w>": 7487,
      "persian</w>": 7488,
      "surviving</w>": 7489,
      "outer</w>": 7490,
      "ano": 7491,
      "statistical</w>": 7492,
      "designer</w>": 7493,
      "crash</w>": 7494,
      "oh</w>": 7495,
      "chat": 7496,
      "phoen": 7497,
      "useful</w>": 7498,
      "dogs</w>": 7499,
      "1885</w>": 7500,
      "bringing</w>": 7501,
      "iden": 7502,
      "basin</w>": 7503,
      "filed</w>": 7504,
      "surgery</w>": 7505,
      "themes</w>": 7506,
      "secure</w>": 7507,
      "700</w>": 7508,
      "rival</w>": 7509,
      "charlie</w>": 7510,
      "1897</w>": 7511,
      "light": 7512,
      "root</w>": 7513,
      "speaker</w>": 7514,
      "appropriate</w>": 7515,
      "mitchell</w>": 7516,
      "sue</w>": 7517,
      "harrison</w>": 7518,
      "enrol": 7519,
      "shr": 7520,
      "thirty</w>": 7521,
      "rebellion</w>": 7522,
      "tag</w>": 7523,
      "favor</w>": 7524,
      "hattan</w>": 7525,
      "gi</w>": 7526,
      "colors</w>": 7527,
      "yorkshire</w>": 7528,
      "preserved</w>": 7529,
      "athens</w>": 7530,
      "childhood</w>": 7531,
      "fefefe</w>": 7532,
      "reas": 7533,
      "fear</w>": 7534,
      "fifa</w>": 7535,
      "expensive</w>": 7536,
      "closure</w>": 7537,
      "hence</w>": 7538,
      "alge": 7539,
      "weak": 7540,
      "fi</w>": 7541,
      "virtual</w>": 7542,
      "metres</w>": 7543,
      "punk</w>": 7544,
      "rapidly</w>": 7545,
      "pent": 7546,
      "lev": 7547,
      "achieve</w>": 7548,
      "cers</w>": 7549,
      "balance</w>": 7550,
      "plas": 7551,
      "pread</w>": 7552,
      "ilit": 7553,
      "vian</w>": 7554,
      "widespread</w>": 7555,
      "idae</w>": 7556,
      "hundre": 7557,
      "ologists</w>": 7558,
      "algori": 7559,
      "mercury</w>": 7560,
      "roof</w>": 7561,
      "avo": 7562,
      "ashed</w>": 7563,
      "tto</w>": 7564,
      "eo": 7565,
      "fting</w>": 7566,
      "frequent</w>": 7567,
      "bristol</w>": 7568,
      "tty</w>": 7569,
      "suicide</w>": 7570,
      "attributed</w>": 7571,
      "hu</w>": 7572,
      "ska</w>": 7573,
      "grow</w>": 7574,
      "existed</w>": 7575,
      "pronoun": 7576,
      "dum</w>": 7577,
      "traditions</w>": 7578,
      "2022</w>": 7579,
      "releases</w>": 7580,
      "delta</w>": 7581,
      "nomination</w>": 7582,
      "utah</w>": 7583,
      "entering</w>": 7584,
      "11th</w>": 7585,
      "stroke</w>": 7586,
      "ist": 7587,
      "itz</w>": 7588,
      "doors</w>": 7589,
      "commissioner</w>": 7590,
      "hart": 7591,
      "retri": 7592,
      "generated</w>": 7593,
      "harbor</w>": 7594,
      "efa</w>": 7595,
      "optim": 7596,
      "lithu": 7597,
      "admitted</w>": 7598,
      "nev": 7599,
      "fill</w>": 7600,
      "component</w>": 7601,
      "mate</w>": 7602,
      "touch": 7603,
      "replacing</w>": 7604,
      "alem</w>": 7605,
      "manhattan</w>": 7606,
      "nan</w>": 7607,
      "yam": 7608,
      "karl</w>": 7609,
      "narrow</w>": 7610,
      "austin</w>": 7611,
      "adol": 7612,
      "ranks</w>": 7613,
      "benjam": 7614,
      "vienna</w>": 7615,
      "sweet</w>": 7616,
      "eighth</w>": 7617,
      "struck</w>": 7618,
      "bacter": 7619,
      "wounded</w>": 7620,
      "flows</w>": 7621,
      "dow": 7622,
      "scope</w>": 7623,
      "beng": 7624,
      "voting</w>": 7625,
      "gent": 7626,
      "pha</w>": 7627,
      "http</w>": 7628,
      "brooklyn</w>": 7629,
      "finishing</w>": 7630,
      "colour</w>": 7631,
      "width</w>": 7632,
      "proposal</w>": 7633,
      "marketing</w>": 7634,
      "lasted</w>": 7635,
      "dictionary</w>": 7636,
      "convers": 7637,
      "oce": 7638,
      "floo": 7639,
      "regime</w>": 7640,
      "limits</w>": 7641,
      "inity</w>": 7642,
      "retail</w>": 7643,
      "romantic</w>": 7644,
      "abled</w>": 7645,
      "voy": 7646,
      "drugs</w>": 7647,
      "lock": 7648,
      "prefecture</w>": 7649,
      "ranean</w>": 7650,
      "publisher</w>": 7651,
      "ml</w>": 7652,
      "sounds</w>": 7653,
      "accessi": 7654,
      "120</w>": 7655,
      "1893</w>": 7656,
      "document</w>": 7657,
      "lose</w>": 7658,
      "layer</w>": 7659,
      "yo</w>": 7660,
      "agan</w>": 7661,
      "abs": 7662,
      "turning</w>": 7663,
      "1894</w>": 7664,
      "modern": 7665,
      "gm</w>": 7666,
      "tes": 7667,
      "unt</w>": 7668,
      "raise</w>": 7669,
      "approval</w>": 7670,
      "jerry</w>": 7671,
      "moment</w>": 7672,
      "mack": 7673,
      "hou</w>": 7674,
      "demol": 7675,
      "greatly</w>": 7676,
      "ions</w>": 7677,
      "tu</w>": 7678,
      "assault</w>": 7679,
      "machines</w>": 7680,
      "qualified</w>": 7681,
      "jordan</w>": 7682,
      "geome": 7683,
      "tape</w>": 7684,
      "worst</w>": 7685,
      "gradually</w>": 7686,
      "arctic</w>": 7687,
      "tied</w>": 7688,
      "absol": 7689,
      "sarah</w>": 7690,
      "borders</w>": 7691,
      "collaboration</w>": 7692,
      "fruit</w>": 7693,
      "calendar</w>": 7694,
      "moral</w>": 7695,
      "je</w>": 7696,
      "indicated</w>": 7697,
      "hr</w>": 7698,
      "tang": 7699,
      "serge": 7700,
      "victims</w>": 7701,
      "flights</w>": 7702,
      "siege</w>": 7703,
      "adju": 7704,
      "symbol": 7705,
      "lah</w>": 7706,
      "dra</w>": 7707,
      "1889</w>": 7708,
      "ima</w>": 7709,
      "essels</w>": 7710,
      "1892</w>": 7711,
      "practical</w>": 7712,
      "zar": 7713,
      "depth</w>": 7714,
      "gib": 7715,
      "egyptian</w>": 7716,
      "corru": 7717,
      "socorro</w>": 7718,
      "concentration</w>": 7719,
      "interested</w>": 7720,
      "drome</w>": 7721,
      "seeing</w>": 7722,
      "inspir": 7723,
      "peac": 7724,
      "benjamin</w>": 7725,
      "icated</w>": 7726,
      "jerus": 7727,
      "anism</w>": 7728,
      "dent": 7729,
      "shares</w>": 7730,
      "byz": 7731,
      "kap": 7732,
      "yle</w>": 7733,
      "py</w>": 7734,
      "airline</w>": 7735,
      "hawaii</w>": 7736,
      "submarine</w>": 7737,
      "oak</w>": 7738,
      "xon</w>": 7739,
      "temperatures</w>": 7740,
      "add</w>": 7741,
      "license</w>": 7742,
      "commons</w>": 7743,
      "gated</w>": 7744,
      "extinc": 7745,
      "exception</w>": 7746,
      "accept</w>": 7747,
      "liberty</w>": 7748,
      "claiming</w>": 7749,
      "eda</w>": 7750,
      "spectr": 7751,
      "broo": 7752,
      "cylin": 7753,
      "sung</w>": 7754,
      "dist</w>": 7755,
      "sati": 7756,
      "icate</w>": 7757,
      "alaska</w>": 7758,
      "cian</w>": 7759,
      "spin</w>": 7760,
      "gru": 7761,
      "vessels</w>": 7762,
      "onau": 7763,
      "meat</w>": 7764,
      "tribute</w>": 7765,
      "efficient</w>": 7766,
      "cave</w>": 7767,
      "wildlife</w>": 7768,
      "credits</w>": 7769,
      "jerusalem</w>": 7770,
      "baker</w>": 7771,
      "alleged</w>": 7772,
      "seri": 7773,
      "ladi": 7774,
      "facts</w>": 7775,
      "involvement</w>": 7776,
      "graham</w>": 7777,
      "vid</w>": 7778,
      "ukraine</w>": 7779,
      "kri": 7780,
      "uefa</w>": 7781,
      "isa": 7782,
      "chancell": 7783,
      "railways</w>": 7784,
      "predec": 7785,
      "cultiv": 7786,
      "isa</w>": 7787,
      "insec": 7788,
      "spring": 7789,
      "fitz": 7790,
      "illi": 7791,
      "jonathan</w>": 7792,
      "afghan": 7793,
      "tility</w>": 7794,
      "lg": 7795,
      "tz": 7796,
      "jon</w>": 7797,
      "inian</w>": 7798,
      "christianity</w>": 7799,
      "hundreds</w>": 7800,
      "entially</w>": 7801,
      "associate</w>": 7802,
      "discography</w>": 7803,
      "landscape</w>": 7804,
      "afghanistan</w>": 7805,
      "clay</w>": 7806,
      "immun": 7807,
      "chy</w>": 7808,
      "jason</w>": 7809,
      "charlo": 7810,
      "romanian</w>": 7811,
      "civilian</w>": 7812,
      "quarte": 7813,
      "logical</w>": 7814,
      "guine": 7815,
      "pens": 7816,
      "inum</w>": 7817,
      "operator</w>": 7818,
      "1870</w>": 7819,
      "hen</w>": 7820,
      "abuse</w>": 7821,
      "maced": 7822,
      "completion</w>": 7823,
      "forests</w>": 7824,
      "compete</w>": 7825,
      "somer": 7826,
      "apparently</w>": 7827,
      "percent": 7828,
      "dominated</w>": 7829,
      "periods</w>": 7830,
      "cardi": 7831,
      "lords</w>": 7832,
      "steps</w>": 7833,
      "proced": 7834,
      "drummer</w>": 7835,
      "rows</w>": 7836,
      "ingen</w>": 7837,
      "beauty</w>": 7838,
      "expec": 7839,
      "clan</w>": 7840,
      "phe": 7841,
      "marath": 7842,
      "aft</w>": 7843,
      "hebrew</w>": 7844,
      "bishops</w>": 7845,
      "illegal</w>": 7846,
      "wes": 7847,
      "inder</w>": 7848,
      "sovere": 7849,
      "iller</w>": 7850,
      "ceo</w>": 7851,
      "experiences</w>": 7852,
      "museums</w>": 7853,
      "database</w>": 7854,
      "kh</w>": 7855,
      "mediter": 7856,
      "runner</w>": 7857,
      "1000</w>": 7858,
      "arrangement</w>": 7859,
      "window</w>": 7860,
      "helicop": 7861,
      "rad</w>": 7862,
      "teen": 7863,
      "emerged</w>": 7864,
      "tos</w>": 7865,
      "germans</w>": 7866,
      "ras": 7867,
      "qi</w>": 7868,
      "hang</w>": 7869,
      "annually</w>": 7870,
      "statue</w>": 7871,
      "noble</w>": 7872,
      "geo": 7873,
      "revenue</w>": 7874,
      "hindu</w>": 7875,
      "pin</w>": 7876,
      "meth": 7877,
      "crimes</w>": 7878,
      "jefferson</w>": 7879,
      "aar": 7880,
      "vary</w>": 7881,
      "random</w>": 7882,
      "belt</w>": 7883,
      "portland</w>": 7884,
      "icon</w>": 7885,
      "writings</w>": 7886,
      "matt</w>": 7887,
      "franco": 7888,
      "pit</w>": 7889,
      "segment</w>": 7890,
      "agencies</w>": 7891,
      "surname</w>": 7892,
      "kle": 7893,
      "knew</w>": 7894,
      "charity</w>": 7895,
      "demic</w>": 7896,
      "conventional</w>": 7897,
      "you": 7898,
      "inch</w>": 7899,
      "departure</w>": 7900,
      "inter</w>": 7901,
      "losses</w>": 7902,
      "perc": 7903,
      "daries</w>": 7904,
      "mechanism</w>": 7905,
      "theless</w>": 7906,
      "nevertheless</w>": 7907,
      "archbishop</w>": 7908,
      "tine</w>": 7909,
      "thly</w>": 7910,
      "essive</w>": 7911,
      "august": 7912,
      "businessman</w>": 7913,
      "advertising</w>": 7914,
      "participate</w>": 7915,
      "detailed</w>": 7916,
      "vig": 7917,
      "renew": 7918,
      "eler": 7919,
      "indonesia</w>": 7920,
      "lington</w>": 7921,
      "tale</w>": 7922,
      "vor": 7923,
      "lars</w>": 7924,
      "extent</w>": 7925,
      "ler": 7926,
      "evangel": 7927,
      "competed</w>": 7928,
      "elli</w>": 7929,
      "automatic</w>": 7930,
      "phrase</w>": 7931,
      "tend</w>": 7932,
      "wolf</w>": 7933,
      "vinc": 7934,
      "iding</w>": 7935,
      "shift</w>": 7936,
      "caster</w>": 7937,
      "platforms</w>": 7938,
      "locomotives</w>": 7939,
      "lp</w>": 7940,
      "partly</w>": 7941,
      "galax": 7942,
      "voters</w>": 7943,
      "1891</w>": 7944,
      "tially</w>": 7945,
      "iranian</w>": 7946,
      "wells</w>": 7947,
      "pian": 7948,
      "signing</w>": 7949,
      "fresh</w>": 7950,
      "anime</w>": 7951,
      "pain</w>": 7952,
      "interpretation</w>": 7953,
      "stev": 7954,
      "spher": 7955,
      "architec": 7956,
      "boundaries</w>": 7957,
      "partial</w>": 7958,
      "1888</w>": 7959,
      "breeding</w>": 7960,
      "else": 7961,
      "tot": 7962,
      "rhe": 7963,
      "thum": 7964,
      "revised</w>": 7965,
      "nhl</w>": 7966,
      "tted</w>": 7967,
      "recommended</w>": 7968,
      "shell</w>": 7969,
      "dor</w>": 7970,
      "neck</w>": 7971,
      "dead": 7972,
      "ultimate</w>": 7973,
      "inhab": 7974,
      "scription</w>": 7975,
      "velt</w>": 7976,
      "carlos</w>": 7977,
      "aide</w>": 7978,
      "sample</w>": 7979,
      "concerned</w>": 7980,
      "dakota</w>": 7981,
      "gym": 7982,
      "vii</w>": 7983,
      "warm</w>": 7984,
      "woods</w>": 7985,
      "griff": 7986,
      "bited</w>": 7987,
      "achievement</w>": 7988,
      "leton</w>": 7989,
      "merger</w>": 7990,
      "carib": 7991,
      "artistic</w>": 7992,
      "farmers</w>": 7993,
      "glasgow</w>": 7994,
      "abil": 7995,
      "moves</w>": 7996,
      "deriv": 7997,
      "pregn": 7998,
      "archaeological</w>": 7999,
      "zen": 8000,
      "illing</w>": 8001,
      "1940s</w>": 8002,
      "dies": 8003,
      "1887</w>": 8004,
      "ukrain": 8005,
      "larry</w>": 8006,
      "vor</w>": 8007,
      "robin</w>": 8008,
      "weal": 8009,
      "meters</w>": 8010,
      "loop</w>": 8011,
      "lander</w>": 8012,
      "certain": 8013,
      "kim": 8014,
      "eously</w>": 8015,
      "acle</w>": 8016,
      "whil": 8017,
      "walking</w>": 8018,
      "beer</w>": 8019,
      "further": 8020,
      "theories</w>": 8021,
      "ashes</w>": 8022,
      "flowers</w>": 8023,
      "inate</w>": 8024,
      "allo": 8025,
      "iler</w>": 8026,
      "sur</w>": 8027,
      "film": 8028,
      "propag": 8029,
      "tious</w>": 8030,
      "hunt</w>": 8031,
      "activist</w>": 8032,
      "sche</w>": 8033,
      "flower</w>": 8034,
      "len</w>": 8035,
      "max": 8036,
      "triple</w>": 8037,
      "hell": 8038,
      "excep": 8039,
      "lar</w>": 8040,
      "master": 8041,
      "minster</w>": 8042,
      "enhan": 8043,
      "chev": 8044,
      "slave</w>": 8045,
      "ukrainian</w>": 8046,
      "logic</w>": 8047,
      "illustrated</w>": 8048,
      "cha</w>": 8049,
      "interstate</w>": 8050,
      "ferry</w>": 8051,
      "etings</w>": 8052,
      "clinton</w>": 8053,
      "brigh": 8054,
      "endor": 8055,
      "hunting</w>": 8056,
      "1880</w>": 8057,
      "buffalo</w>": 8058,
      "milk</w>": 8059,
      "101</w>": 8060,
      "suburb</w>": 8061,
      "happened</w>": 8062,
      "neur": 8063,
      "stayed</w>": 8064,
      "att</w>": 8065,
      "sna": 8066,
      "caribbean</w>": 8067,
      "stown</w>": 8068,
      "electron": 8069,
      "unusual</w>": 8070,
      "democrats</w>": 8071,
      "drum</w>": 8072,
      "malaysia</w>": 8073,
      "sessions</w>": 8074,
      "comprehen": 8075,
      "mediterranean</w>": 8076,
      "eus</w>": 8077,
      "sees</w>": 8078,
      "facing</w>": 8079,
      "roose": 8080,
      "gang": 8081,
      "biological</w>": 8082,
      "relationships</w>": 8083,
      "substantial</w>": 8084,
      "encoun": 8085,
      "tribun": 8086,
      "patterns</w>": 8087,
      "rifle</w>": 8088,
      "hero": 8089,
      "speakers</w>": 8090,
      "radical</w>": 8091,
      "immediate</w>": 8092,
      "sper": 8093,
      "weekend</w>": 8094,
      "sc</w>": 8095,
      "ett</w>": 8096,
      "sponsored</w>": 8097,
      "sacred</w>": 8098,
      "brick</w>": 8099,
      "kinson</w>": 8100,
      "photography</w>": 8101,
      "hat</w>": 8102,
      "desire</w>": 8103,
      "patrol</w>": 8104,
      "sand</w>": 8105,
      "vector</w>": 8106,
      "wau": 8107,
      "virgin</w>": 8108,
      "increases</w>": 8109,
      "chal": 8110,
      "marines</w>": 8111,
      "wooden</w>": 8112,
      "sword</w>": 8113,
      "unk</w>": 8114,
      "spaces</w>": 8115,
      "simultan": 8116,
      "merchant</w>": 8117,
      "partially</w>": 8118,
      "oba</w>": 8119,
      "variable</w>": 8120,
      "copy</w>": 8121,
      "habitat</w>": 8122,
      "conversion</w>": 8123,
      "denied</w>": 8124,
      "surrounded</w>": 8125,
      "schedule</w>": 8126,
      "whilst</w>": 8127,
      "measu": 8128,
      "matters</w>": 8129,
      "pick</w>": 8130,
      "heigh": 8131,
      "vancou": 8132,
      "wido": 8133,
      "rarely</w>": 8134,
      "sud": 8135,
      "minority</w>": 8136,
      "grace</w>": 8137,
      "treaties</w>": 8138,
      "phil</w>": 8139,
      "battles</w>": 8140,
      "witn": 8141,
      "shall</w>": 8142,
      "map": 8143,
      "dus</w>": 8144,
      "roosevelt</w>": 8145,
      "judg": 8146,
      "vancouver</w>": 8147,
      "erie</w>": 8148,
      "ship": 8149,
      "choose</w>": 8150,
      "falling</w>": 8151,
      "trials</w>": 8152,
      "kov</w>": 8153,
      "barbara</w>": 8154,
      "hall": 8155,
      "mou": 8156,
      "mart": 8157,
      "connecting</w>": 8158,
      "eleven</w>": 8159,
      "brown": 8160,
      "writes</w>": 8161,
      "horn</w>": 8162,
      "apost": 8163,
      "scientist</w>": 8164,
      "friendly</w>": 8165,
      "grass</w>": 8166,
      "1861</w>": 8167,
      "learn</w>": 8168,
      "touring</w>": 8169,
      "licensed</w>": 8170,
      "nab": 8171,
      "dw": 8172,
      "overseas</w>": 8173,
      "ux</w>": 8174,
      "ym</w>": 8175,
      "anny</w>": 8176,
      "encouraged</w>": 8177,
      "alberta</w>": 8178,
      "dro</w>": 8179,
      "indeed</w>": 8180,
      "cardinal</w>": 8181,
      "haven</w>": 8182,
      "athletes</w>": 8183,
      "cuba</w>": 8184,
      "cos</w>": 8185,
      "patient</w>": 8186,
      "uniform</w>": 8187,
      "microsoft</w>": 8188,
      "neo</w>": 8189,
      "manga</w>": 8190,
      "blast</w>": 8191,
      "doctr": 8192,
      "cousin</w>": 8193,
      "bid</w>": 8194,
      "aber": 8195,
      "muhammad</w>": 8196,
      "sympt": 8197,
      "variation</w>": 8198,
      "keyboards</w>": 8199,
      "mund</w>": 8200,
      "1865</w>": 8201,
      "pioneer</w>": 8202,
      "among": 8203,
      "semi": 8204,
      "commerci": 8205,
      "keeper</w>": 8206,
      "competitions</w>": 8207,
      "maritime</w>": 8208,
      "legitim": 8209,
      "tum": 8210,
      "ffs</w>": 8211,
      "rene</w>": 8212,
      "manuel</w>": 8213,
      "axis</w>": 8214,
      "acres</w>": 8215,
      "concrete</w>": 8216,
      "suitable</w>": 8217,
      "shield</w>": 8218,
      "concern</w>": 8219,
      "percentage</w>": 8220,
      "kar</w>": 8221,
      "settlements</w>": 8222,
      "benefits</w>": 8223,
      "raid</w>": 8224,
      "incumb": 8225,
      "involves</w>": 8226,
      "convicted</w>": 8227,
      "aren</w>": 8228,
      "essors</w>": 8229,
      "opponent</w>": 8230,
      "hp</w>": 8231,
      "idi": 8232,
      "archives</w>": 8233,
      "clock</w>": 8234,
      "gosp": 8235,
      "hugh</w>": 8236,
      "false</w>": 8237,
      "comparison</w>": 8238,
      "lifetime</w>": 8239,
      "nis": 8240,
      "alize</w>": 8241,
      "attractions</w>": 8242,
      "clinical</w>": 8243,
      "buy</w>": 8244,
      "computers</w>": 8245,
      "elsewhere</w>": 8246,
      "begun</w>": 8247,
      "exit</w>": 8248,
      "keys</w>": 8249,
      "acou": 8250,
      "venue</w>": 8251,
      "enders</w>": 8252,
      "zi</w>": 8253,
      "visiting</w>": 8254,
      "else</w>": 8255,
      "fli": 8256,
      "icans</w>": 8257,
      "sson</w>": 8258,
      "exac": 8259,
      "catherine</w>": 8260,
      "produces</w>": 8261,
      "birthday</w>": 8262,
      "turers</w>": 8263,
      "mili": 8264,
      "buses</w>": 8265,
      "participants</w>": 8266,
      "refuge": 8267,
      "absence</w>": 8268,
      "ruling</w>": 8269,
      "injuries</w>": 8270,
      "nicholas</w>": 8271,
      "deman": 8272,
      "defeating</w>": 8273,
      "enterprise</w>": 8274,
      "possibility</w>": 8275,
      "shadow</w>": 8276,
      "boxing</w>": 8277,
      "esc": 8278,
      "exposure</w>": 8279,
      "ashi</w>": 8280,
      "wait</w>": 8281,
      "violent</w>": 8282,
      "demolished</w>": 8283,
      "wig</w>": 8284,
      "eta</w>": 8285,
      "cargo</w>": 8286,
      "elder</w>": 8287,
      "param": 8288,
      "finnish</w>": 8289,
      "sz": 8290,
      "edic": 8291,
      "wire</w>": 8292,
      "locally</w>": 8293,
      "spoke</w>": 8294,
      "debuted</w>": 8295,
      "ssing</w>": 8296,
      "attracted</w>": 8297,
      "raf</w>": 8298,
      "ago": 8299,
      "fitted</w>": 8300,
      "struggle</w>": 8301,
      "hes</w>": 8302,
      "1884</w>": 8303,
      "solutions</w>": 8304,
      "mam": 8305,
      "lap</w>": 8306,
      "biology</w>": 8307,
      "rocket</w>": 8308,
      "hull</w>": 8309,
      "hitler</w>": 8310,
      "prised</w>": 8311,
      "erra</w>": 8312,
      "embr": 8313,
      "lb</w>": 8314,
      "meets</w>": 8315,
      "characterized</w>": 8316,
      "1881</w>": 8317,
      "victorian</w>": 8318,
      "dum": 8319,
      "fs</w>": 8320,
      "hara</w>": 8321,
      "villa": 8322,
      "psychology</w>": 8323,
      "ulties</w>": 8324,
      "dress</w>": 8325,
      "news": 8326,
      "manit": 8327,
      "foster</w>": 8328,
      "mystery</w>": 8329,
      "tioning</w>": 8330,
      "phoenix</w>": 8331,
      "researchers</w>": 8332,
      "holiday</w>": 8333,
      "elite</w>": 8334,
      "chase</w>": 8335,
      "wheel": 8336,
      "waves</w>": 8337,
      "alcohol</w>": 8338,
      "panel</w>": 8339,
      "amongst</w>": 8340,
      "proof</w>": 8341,
      "threatened</w>": 8342,
      "aceae</w>": 8343,
      "cock</w>": 8344,
      "extrac": 8345,
      "closing</w>": 8346,
      "occasions</w>": 8347,
      "intermedi": 8348,
      "vertical</w>": 8349,
      "mines</w>": 8350,
      "bath</w>": 8351,
      "pine</w>": 8352,
      "photo</w>": 8353,
      "publicly</w>": 8354,
      "apparent</w>": 8355,
      "rhythm</w>": 8356,
      "confederate</w>": 8357,
      "evans</w>": 8358,
      "giants</w>": 8359,
      "1886</w>": 8360,
      "tables</w>": 8361,
      "harold</w>": 8362,
      "guards</w>": 8363,
      "concerts</w>": 8364,
      "connections</w>": 8365,
      "diamond</w>": 8366,
      "bu</w>": 8367,
      "warfare</w>": 8368,
      "waiting</w>": 8369,
      "stol": 8370,
      "quad": 8371,
      "promise</w>": 8372,
      "trinity</w>": 8373,
      "acoustic</w>": 8374,
      "system": 8375,
      "bright</w>": 8376,
      "sto</w>": 8377,
      "judges</w>": 8378,
      "rage</w>": 8379,
      "metric</w>": 8380,
      "delaware</w>": 8381,
      "mars</w>": 8382,
      "rocks</w>": 8383,
      "summit</w>": 8384,
      "telephone</w>": 8385,
      "ticed</w>": 8386,
      "meetings</w>": 8387,
      "suffering</w>": 8388,
      "seeking</w>": 8389,
      "nem": 8390,
      "sak": 8391,
      "iso</w>": 8392,
      "norfolk</w>": 8393,
      "functional</w>": 8394,
      "opol": 8395,
      "filming</w>": 8396,
      "mel</w>": 8397,
      "corresponding</w>": 8398,
[...]
